, 128637
. 120406
là 58033
tôi 52022
một 48984
có 48318
và 48045
những 37983
chúng 37385
của 37088
không 30792
ta 30344
người 26793
đó 26723
bạn 26685
trong 24821
thể 24363
này 23093
đã 22998
các 22511
được 22064
với 20556
&quot; 19840
cho 19675
sự 19046
ra 18836
Và 18757
làm 17878
ở 16805
nó 16643
mà 16204
để 16141
về 15976
sẽ 15653
như 15616
điều 14289
thế 14147
khi 12887
Tôi 12654
nói 12602
họ 12533
đến 11868
? 11433
phải 11412
rằng 10971
vào 10886
đang 10847
gì 10787
việc 10774
từ 10727
lại 10476
thấy 10329
rất 10124
cách 10100
hơn 9961
nhiều 9743
thực 9227
cả 9212
đầu 9186
đây 8965
học 8831
con 8772
khác 8746
công 8556
trên 8553
cái 8332
vì 8286
nào 8276
biết 8220
chỉ 8218
Chúng 8188
năm 7703
-- 7569
thứ 7539
nghĩ 7538
đi 7487
thành 7412
: 7332
cũng 7042
nhà 6856
số 6788
bị 6698
quan 6659
muốn 6621
mình 6364
nhưng 6316
nhất 6290
Nhưng 6250
tạo 6205
động 6161
chính 6142
giới 6127
1 6055
nên 6016
vậy 5921
hình 5611
hiện 5515
giờ 5515
sống 5474
tại 5420
nhận 5397
nếu 5396
mọi 5393
ông 5270
cuộc 5252
cần 5207
hay 5191
thì 5095
ấy 5071
đề 5012
tự 4982
tất 4963
bởi 4881
anh 4876
tới 4852
theo 4826
bắt 4815
còn 4774
nhìn 4757
lớn 4740
ý 4729
cùng 4699
bằng 4682
cảm 4666
tế 4611
sau 4598
dụng 4594
thật 4586
tin 4580
lên 4564
câu 4550
bản 4537
thời 4457
sao 4450
chuyện 4433
trở 4423
qua 4397
ngày 4383
nhân 4375
cơ 4355
bộ 4352
sinh 4347
năng 4216
phát 4188
trước 4186
nước 4181
đổi 4157
toàn 4111
phần 4099
nơi 4077
gia 4072
thông 4040
tìm 4000
thay 3985
nhau 3980
mới 3973
vấn 3929
định 3921
Nó 3885
trường 3857
nhiên 3836
tính 3805
Đây 3796
sử 3782
trình 3775
hệ 3768
tốt 3747
tưởng 3733
kết 3726
vật 3655
ảnh 3631
hàng 3630
lý 3622
hỏi 3590
Bạn 3532
máy 3502
hợp 3444
Đó 3405
mặt 3397
ai 3368
tiếp 3363
hành 3361
kinh 3337
nữa 3321
thức 3302
gian 3298
hội 3293
thiết 3272
rồi 3253
xem 3235
liệu 3230
trọng 3213
cô 3200
hoá 3197
thích 3196
vị 3165
đồng 3145
giải 3126
trẻ 3047
hai 3043
lượng 3038
bất 2990
thường 2984
vài 2980
đều 2973
do 2945
Một 2942
tiên 2940
đối 2930
sáng 2917
hiểu 2885
quá 2871
tâm 2863
nay 2858
loại 2846
giống 2840
Vì 2832
lần 2830
cứu 2814
bao 2808
bệnh 2795
thống 2790
viên 2749
nghệ 2696
nghĩa 2687
điểm 2686
gọi 2676
Có 2672
nhỏ 2639
Vậy 2635
đưa 2572
tương 2564
hoàn 2562
độ 2551
nghiệm 2545
quả 2532
tác 2524
đường 2521
vẫn 2493
Họ 2459
xảy 2455
chiếc 2444
thuật 2425
dùng 2416
biệt 2414
đại 2406
hoặc 2405
ăn 2399
bên 2388
từng 2384
dân 2374
triển 2365
lúc 2360
chuyển 2358
diễn 2350
Điều 2343
b@@ 2322
Những 2321
quyết 2319
trị 2312
nghe 2299
cao 2299
tuyệt 2260
mỗi 2255
khoảng 2244
cầu 2242
Nếu 2231
lực 2222
chất 2222
kế 2218
phụ 2198
ơn 2186
lời 2164
giáo 2158
giúp 2152
đất 2144
cố 2142
trung 2120
em 2113
bảo 2099
giá 2090
nữ 2089
tiến 2086
hết 2084
2 2080
phòng 2078
tình 2069
nghiên 2068
chưa 2068
xuất 2061
xe 2044
mang 2039
liên 2032
phân 2021
bài 2012
Anh 2011
tranh 2011
đơn 2009
não 2003
truyền 2003
tập 2002
tuổi 1990
đúng 1989
phương 1988
điện 1984
bình 1982
đặt 1976
tượng 1969
biến 1956
tay 1956
Khi 1955
giữa 1948
yêu 1944
v@@ 1942
tiền 1941
sản 1940
t@@ 1939
tiếng 1930
T@@ 1908
hãy 1906
l@@ 1898
ngay 1894
khả 1891
trả 1888
khoa 1882
- 1880
Không 1871
r@@ 1864
thú 1862
lấy 1852
ít 1833
gần 1829
xã 1826
hoạt 1823
ch@@ 1815
d@@ 1814
chiến 1810
M@@ 1807
S@@ 1806
bỏ 1806
cá 1801
đáng 1799
sách 1795
Trong 1789
phẩm 1774
thân 1771
pháp 1770
hiệu 1769
cuối 1763
âm 1762
cứ 1757
khó 1755
đời 1755
chơi 1747
chủ 1742
dụ 1739
dự 1735
nh@@ 1734
Các 1732
mất 1728
sức 1727
minh 1726
kể 1714
h@@ 1707
C@@ 1701
Mỹ 1701
c@@ 1693
mạnh 1685
nghiệp 1668
ngoài 1665
đồ 1665
dẫn 1662
B@@ 1661
bé 1659
tài 1651
lập 1651
tinh 1645
chí 1641
đấy 1640
loài 1639
đ@@ 1636
kỳ 1635
bức 1635
m@@ 1620
luôn 1617
dựng 1612
xây 1611
trí 1608
n@@ 1603
tiêu 1601
tên 1590
3 1590
s@@ 1589
vô 1586
cộng 1585
văn 1584
mô 1581
chứng 1581
án 1575
ứng 1564
tử 1562
thu 1561
hướng 1555
ng@@ 1552
nhạc 1543
phố 1541
thử 1531
viết 1524
Hãy 1524
chức 1515
nguyên 1512
kiến 1510
đâu 1510
quốc 1508
giả 1506
ba 1498
vời 1497
chọn 1493
quyền 1489
giản 1487
đặc 1483
chế 1481
x@@ 1479
chết 1470
di 1466
tư 1466
bào 1466
mạng 1463
vi 1460
cấp 1459
suy 1457
bà 1455
triệu 1453
a 1451
tăng 1450
khí 1445
thần 1442
nền 1442
đạo 1436
đứa 1436
an 1435
phá 1417
lẽ 1416
khỏi 1409
sĩ 1407
màu 1405
đánh 1391
gặp 1380
tháng 1375
Thế 1375
dưới 1374
i 1374
thị 1374
khu 1370
chút 1354
xuống 1353
L@@ 1352
vụ 1352
mẹ 1351
gắng 1339
chia 1336
-@@ 1335
khá 1322
phép 1321
nhóm 1319
th@@ 1319
quanh 1318
mở 1318
dịch 1317
khiến 1309
vực 1307
xác 1306
dữ 1304
Bây 1302
% 1301
H@@ 1298
tham 1296
bay 1294
thêm 1286
trò 1280
mức 1277
thuyết 1276
tr@@ 1272
quay 1271
nhanh 1269
dạng 1262
tổ 1261
gây 1259
rõ 1259
đàn 1259
cực 1257
Đ@@ 1255
vọng 1254
cụ 1252
K@@ 1244
nguồn 1241
D@@ 1239
vùng 1236
cảnh 1234
bây 1229
báo 1222
đẹp 1222
tục 1221
dù 1217
giác 1211
xa 1206
chắc 1206
sát 1203
càng 1203
dễ 1202
đủ 1194
cây 1193
g@@ 1190
ví 1188
trang 1185
phía 1183
... 1182
nhớ 1180
phim 1178
10 1177
biểu 1177
hôm 1176
hưởng 1176
đoạn 1171
N@@ 1168
duy 1166
chẳng 1163
o 1161
vũ 1160
kiểm 1155
trái 1155
thương 1145
Quốc 1140
Ông 1137
dài 1134
vòng 1131
ph@@ 1127
luận 1124
phản 1120
ngữ 1118
đôi 1113
ty 1111
Trung 1107
đầy 1104
kì 1096
lợi 1094
dục 1091
kia 1085
V@@ 1084
giảm 1083
thậm 1081
thuốc 1075
y 1072
vừa 1067
kiếm 1066
chân 1065
A@@ 1064
tích 1062
k@@ 1060
chú 1059
so 1058
trăm 1057
ánh 1056
R@@ 1054
thôi 1050
thư 1049
; 1043
đình 1040
5 1035
giao 1035
hạn 1035
bước 1034
lai 1030
Người 1027
sâu 1020
Tại 1018
môi 1013
toán 1011
trải 1008
trời 1003
tồn 1003
diện 1000
rộng 992
phục 992
Bởi 991
giữ 991
thanh 989
dành 987
nối 985
đoán 982
địa 981
lòng 979
4 977
thuộc 977
riêng 976
Ch@@ 972
tạp 970
sợ 969
mục 968
mắt 968
đứng 968
sai 967
! 966
dạy 963
nổi 962
phủ 960
đạt 958
vệ 957
vẻ 957
thí 955
chi 955
thúc 950
kỹ 949
căn 949
luật 948
sẻ 945
tối 944
xung 939
lệ 939
mẫu 936
ô 932
lịch 932
bàn 923
đọc 923
u 921
lớp 918
Cảm 917
kỷ 913
Th@@ 912
yếu 909
khắp 903
đô 903
trụ 900
trông 897
vui 897
quy 894
tiết 893
khoẻ 893
chương 892
chạy 890
ngồi 890
bố 884
gái 881
cậu 880
phút 879
cuốn 877
P@@ 876
in 876
mối 876
kh@@ 875
la 871
buổi 869
20 868
trợ 867
hầu 864
chắn 863
sắc 862
suốt 861
&apos; 859
kiện 855
ẩn 851
biển 851
trúc 850
ngôn 843
chung 842
ích 841
mua 839
doanh 838
kiểu 834
Tất 832
Vâng 831
Phi 831
sư 831
G@@ 829
cửa 826
áp 824
vận 824
m 822
khám 820
cánh 819
ngạc 818
xét 815
xúc 813
sở 812
lâu 809
ràng 809
thoại 808
tuần 806
bán 806
tỉ 805
to 804
hiểm 801
hồi 801
cấu 791
nhiệm 790
phức 782
thiên 781
kích 780
cung 775
nằm 774
chuyên 773
chụp 773
nhập 772
Ở 767
bóng 763
ngôi 759
băng 759
thái 757
Sau 756
cạnh 755
kẻ 754
phí 752
độc 746
tra 746
viện 743
hạnh 743
hữu 742
hoà 738
ngành 737
chứ 737
chỗ 737
trưởng 731
da 729
khủng 728
vẽ 727
thập 727
đa 722
E@@ 717
ung 716
6 714
Xin 714
gi@@ 714
chuẩn 713
bác 712
quý 711
ghi 710
thiếu 709
phúc 709
Cô 708
Thật 706
chịu 706
hề 702
hoạ 700
xanh 700
lắng 700
xin 698
tấm 698
sẵn 694
niệm 694
Nên 693
tức 691
phạm 691
tệ 690
nhiêu 690
lo 689
Sự 689
khăn 689
tái 687
đau 686
trai 685
sắp 683
Cái 682
hơi 681
30 677
Giờ 677
mặc 675
lạ 675
dung 674
Thực 674
chống 673
lạc 671
y@@ 671
thất 669
dựa 663
cải 663
mong 662
châu 662
đóng 662
xử 658
Như 657
lựa 651
ước 651
TED 651
trực 651
Tr@@ 649
đội 647
bánh 645
ban 642
tổng 641
hậu 640
nội 635
khắc 635
vượt 632
on 632
mật 632
tỷ 630
tầm 629
chăm 629
e 628
dần 627
xấu 627
gửi 627
I@@ 625
hộ 625
toà 625
Ý 624
Làm 623
50 620
hứng 619
thiện 619
hạt 618
Để 614
nguy 612
tim 611
n 609
danh 608
lưu 607
Ấn 606
trạng 605
nhiệt 605
cha 604
lãnh 603
ảo 603
đột 602
chiều 601
dầu 598
niềm 596
u@@ 595
F@@ 594
.@@ 593
tội 591
ngoại 590
nạn 588
nghèo 587
cận 586
sang 586
chữa 582
kính 581
đấu 578
Châu 578
dấu 577
đẩy 575
O@@ 574
Độ 574
nỗi 573
7 571
cổ 569
kéo 566
may 565
hát 565
thách 564
đen 562
tố 562
khách 560
tắc 559
thủ 559
ngược 558
giấy 555
qu@@ 555
ống 555
nuôi 553
hy 551
New 550
phi 547
bại 547
Tây 544
chữ 542
quản 542
100 541
en 538
soát 537
lỗi 537
nửa 537
lĩnh 536
ca 536
mắc 535
tiện 534
hoạch 534
mơ 533
ngủ 532
gồm 530
nhiễm 530
tốc 528
ong 528
dương 526
khiển 525
tả 524
lí 524
sóc 524
cắt 523
Mọi 520
nghi 519
hại 519
J@@ 518
giết 518
thẳng 516
Con 514
khối 514
quen 513
bày 513
dây 513
quân 512
tàu 512
đông 511
lưới 511
cử 510
chiếu 509
đích 509
đức 508
Do 508
o@@ 506
áo 505
thấp 505
dòng 504
đá 504
Chỉ 503
bầu 501
lái 501
niên 500
ngờ 500
đêm 500
thi 499
cười 499
đổ 498
nhờ 498
9 497
phóng 497
dàng 496
khai 496
8 494
chấp 494
sàng 494
xếp 493
cư 493
rối 493
ngắn 492
bốn 492
gốc 491
mê 491
t 491
tận 490
phong 489
gấp 488
đem 487
X@@ 487
nông 487
/ 486
đỡ 484
Với 483
giây 482
bạo 481
sân 481
lắm 481
kỉ 479
trách 477
gắn 476
vai 476
cân 473
cáo 472
Rồi 470
hồ 470
ngàn 467
đợi 467
i@@ 467
tôn 466
phẫu 465
hài 463
hoa 462
xuyên 461
nhảy 457
chuyến 455
Ph@@ 454
dừng 454
bí 454
siêu 453
ấn 453
áng 452
thụ 452
&#91; 451
chị 451
mã 450
chim 450
kĩ 449
&#93; 448
ả 448
màn 448
ký 446
lao 446
giai 445
nghị 444
đảm 444
a@@ 444
tầng 442
gen 441
ổn 440
tải 439
hấp 439
15 437
phổ 435
Kh@@ 434
video 433
Gi@@ 432
khởi 430
nhắc 429
ngăn 429
rừng 427
đo 425
1@@ 424
chỉnh 424
tù 424
ạ 423
thải 422
góc 422
Internet 422
khái 422
Tuy 419
hút 418
hộp 417
nghiêm 417
Được 416
món 415
óc 415
Nam 415
nam 414
luyện 414
ồn 413
Âu 412
khuôn 411
môn 411
giàu 410
tín 410
Nh@@ 410
chuột 409
cập 409
lá 409
ủng 409
Còn 408
à 408
thơ 408
Ví 407
p 406
già 404
coi 404
ngân 404
c 403
U@@ 402
đỏ 402
liệt 401
đám 401
thắng 399
phận 399
tuyến 399
tấn 398
trao 396
trừ 395
Hoa 394
tai 393
Chúa 392
huỷ 392
đảo 392
nh 391
li@@ 391
nặng 390
chứa 390
lan 390
Cho 390
Trái 390
York 389
dậy 389
hẳn 389
Câu 388
mềm 388
vân 386
nóng 385
mấy 384
phù 383
mạch 381
cháu 381
4@@ 380
Bắc 380
quyển 379
chóng 379
mùa 379
mẽ 379
điển 378
buộc 378
thiệu 377
sóng 377
Hiện 377
trùng 377
dưỡng 377
máu 376
e@@ 376
hạ 375
uống 375
W@@ 375
linh 375
40 374
khán 374
.000 374
thảo 373
rời 373
hãi 372
chủng 372
Công 371
Ta 370
dõi 369
điên 369
ương 369
Từ 368
tảng 368
tồi 368
sơ 367
lộ 367
Nhà 366
loạn 366
cũ 366
chờ 365
đáp 365
Kỳ 365
buồn 364
lầm 364
vững 363
ơi 363
12 361
sửa 360
Liệu 360
mắn 360
góp 359
ác 359
ốt 359
Ai 357
ng 357
robot 356
thưởng 356
khổng 355
Rất 355
ang 355
tránh 355
lo@@ 355
lồ 354
tường 354
Vào 354
miễn 353
khoản 353
Thứ 352
Mỗi 350
đói 350
xu 350
chàng 350
đèn 350
lạnh 349
ưu 348
ân 347
tổn 347
mái 347
bảng 346
Qu@@ 346
cơn 345
an@@ 344
lẫn 344
mảnh 343
5@@ 343
trắng 343
đỉnh 342
tộc 342
diệu 341
rút 341
ma 341
núi 340
h 340
tờ 340
Đúng 340
Ngày 338
web 338
phỏng 337
tiểu 336
nhu 336
Đông 336
đào 336
ức 334
son 333
tốn 333
giọng 332
Bà 332
àn 331
trận 330
hảo 330
du 329
quên 329
giỏi 329
bề 328
rơi 328
3@@ 327
trì 327
quảng 327
trồng 327
ôi 326
mãi 326
kim 325
Hồi 325
chạm 324
ổ 323
cầm 322
khuẩn 321
bật 321
ám 321
vốn 320
Chính 320
bền 320
bang 320
đương 319
nghìn 319
phấn 318
Ng@@ 318
sánh 318
ôn 317
tiềm 317
el@@ 317
êu 317
hôn 317
chấm 316
lương 316
chiếm 314
l 314
cỡ 314
Năm 314
khoá 314
ốc 313
Đại 313
hoảng 313
mời 313
nắm 312
z@@ 312
khích 312
A 312
nghỉ 311
hiển 311
vàng 310
ngừng 310
phối 310
bữa 310
hào 309
lửa 309
điệu 308
làng 308
ấm 308
đừng 307
thịt 307
vỡ 307
xương 307
ghế 306
vĩ 306
âu 306
80 306
quần 305
tách 304
hỗ 304
nổ 303
ục 303
chuỗi 303
Y@@ 302
dường 302
vợ 301
ối 301
chảy 301
khẩu 301
biên 300
in@@ 300
đằng 299
kịch 299
sót 299
hi 299
Trên 298
ri@@ 297
àng 297
ế 297
sớm 296
thoát 296
ăng 296
ốn 296
loạt 296
gió 295
chậm 294
chồng 294
tô 294
en@@ 293
ạo 293
Trước 292
000 292
tắt 291
6@@ 291
sạch 291
tàn 291
giấc 289
60 289
Ồ 289
ách 288
7@@ 288
Vấn 288
25 287
bè 287
lặp 287
nghề 287
gợi 286
suất 286
tan 285
kê 285
dĩ 283
kho@@ 283
khổ 283
8@@ 283
khứ 283
quỹ 283
ép 281
phê 280
Cách 280
C 279
lối 279
trưng 279
lỗ 279
ngại 278
ạt 278
sông 277
túi 277
nhé 277
tán 277
trại 276
quang 275
trữ 275
Cám 274
chó 274
nguyện 274
Google 274
ti@@ 271
ơ 271
ắn 271
viễn 271
Nói 270
thước 270
đăng 270
p@@ 270
Ma@@ 270
dặm 270
ền 269
kiệm 269
cờ 268
ô@@ 267
ội 267
z 266
er@@ 266
Đầu 266
đuổi 265
Việc 265
x 265
kháng 265
sỹ 265
í 264
nâng 264
w@@ 264
Hay 263
bơi 263
nhắn 262
la@@ 262
kém 262
ghép 261
thăm 260
Al@@ 260
cà 259
phiên 259
k 259
át 258
sốt 258
rẻ 257
khoảnh 257
s 257
thở 257
ly 257
thảm 257
11 256
g 256
er 255
nhật 255
lặng 255
ồng 255
ào 255
vỏ 255
nỗ 254
vết 254
Đất 254
thoả 254
bọn 253
tàng 253
at@@ 253
ko 253
hoang 252
sáu 251
Là 251
xoay 251
Nhật 250
as 250
lọc 250
hùng 250
ần 250
tròn 249
trống 249
bờ 248
điệp 248
nhẹ 247
di@@ 247
ho@@ 246
re@@ 246
ưa 246
man 246
al 246
ùng 246
al@@ 246
đẳng 244
ớ 243
lục 243
hổ 243
ngẫu 243
mùi 243
Lúc 243
Mar@@ 243
voi 243
it@@ 242
Bản 242
9@@ 241
đam 241
0@@ 241
ồ 241
bò 241
doạ 241
Bộ 240
vi@@ 240
ập 240
lành 240
lính 240
đựng 238
thuận 237
thừa 236
200 236
thác 236
Ngay 235
thuỷ 235
can 235
ar@@ 235
đoàn 234
rác 234
cấy 234
ã 233
Hai 233
Theo 232
Cuối 232
trích 232
chặt 231
os@@ 231
j@@ 231
HIV 231
An@@ 230
nhuận 230
thai 229
ư 229
họp 229
giảng 229
thang 229
Đức 228
đạp 228
gh@@ 228
đe 228
lược 227
90 227
Nào 227
miếng 227
70 227
ái 227
nhựa 227
lãng 227
2@@ 226
18 226
Cậu 226
ời 226
ì 225
ay 225
Đừng 225
lắp 225
cãi 224
khấu 224
tri 224
Cuộc 224
chặn 224
Mà 223
giám 223
chào 222
ị 222
ạn 222
tật 222
ầm 222
ta@@ 221
mừng 221
ngoái 221
ỉ 221
Hoặc 221
bi 221
lễ 221
ngang 220
yên 220
on@@ 220
am@@ 220
đòi 220
mù 220
diệt 219
de 219
huống 219
á 219
cản 218
ê 218
thao 218
thận 218
$ 218
Cũng 218
mại 218
Chẳng 217
hương 217
mây 217
sổ 216
ờ 216
mét 215
to@@ 215
đống 215
mi@@ 215
thấu 214
sợi 214
đùa 214
Thay 214
úng 214
chép 214
G 213
tràn 213
vong 213
ới 212
cặp 212
vú 212
cứng 211
le@@ 211
Em 211
thù 211
cám 211
êm 211
19@@ 210
mập 210
é 210
ại 210
tuyên 210
tỏ 210
nhằm 210
bu@@ 210
cát 210
B 209
ấp 209
phiếu 209
500 209
Nhiều 209
Đối 209
bom 208
Ho@@ 208
or@@ 208
tu@@ 208
as@@ 208
khía 207
mực 207
us 207
nhịp 207
chán 207
ab@@ 207
ật 207
Su@@ 207
súng 207
Dù 206
bối 206
trào 206
sụp 206
hiếm 205
ADN 205
ạc 205
tiêm 205
es 205
ừng 205
ad@@ 205
tá 204
hu@@ 204
kêu 204
bắn 204
ầy 203
es@@ 203
Ro@@ 203
ngọn 203
hà 203
ê@@ 202
hoàng 202
lừa 202
Mẹ 202
khung 202
triết 201
móc 201
dối 201
ất 201
liền 201
cam 201
Bằng 200
Pháp 200
béo 200
gỗ 200
im 199
Về 199
cục 199
côn 199
Z@@ 199
đua 198
and 198
che 198
mưa 198
Phải 197
Lu@@ 197
ha@@ 197
thờ 197
Mi@@ 197
hè 197
v 197
thầy 197
Liên 196
khảo 196
kí 195
chu@@ 195
mạc 195
ộc 195
ấu 195
thoải 195
căng 195
Thái 195
đập 195
bậc 195
hối 195
ni@@ 195
ắt 194
Phần 194
ngưỡng 194
nấm 194
chốt 193
lũ 193
is 193
Car@@ 192
chối 192
chi@@ 192
huấn 191
le 190
rượu 190
than 190
táo 189
thuyền 189
ọt 189
ghét 189
nhũng 189
ây 189
trầm 189
hỗn 189
ệ 189
mỏ 189
D 188
Sẽ 188
Ba 188
vâng 188
el 188
rắc 187
ol@@ 187
ô-@@ 187
mì 187
To@@ 186
sa 186
bảy 186
khuyến 185
biện 185
tia 184
thi@@ 184
song 184
Thuỵ 184
cháy 183
tỉnh 183
đắt 183
nút 183
Hôm 182
ngón 182
ỏ 182
il@@ 182
Iran 181
hồn 181
Afghanistan 181
phán 181
hắn 181
10@@ 181
truy 181
ài 180
xứng 180
am 180
thọ 180
cỏ 180
mạo 179
ỗi 179
ầu 179
út 179
thiểu 178
ồi 178
Nhìn 178
túc 178
ro 178
ực 178
John 178
Ả 178
TV 178
thả 177
mũi 177
ành 177
David 177
gọn 177
săn 177
khát 176
trứng 176
ra@@ 176
xoá 176
giận 176
ột 175
ẩm 175
va 175
ói 175
ap@@ 175
18@@ 175
16 175
bông 175
dinh 175
cỗ 175
cụt 175
mai 174
ẻ 174
thạch 174
Mặt 174
14 174
Hầu 174
protein 174
khiếp 174
13 173
thuê 173
dày 173
thiệp 173
ướng 173
rủi 173
xong 172
iết 172
nấu 172
đắn 172
Sao 172
lộn 171
hước 171
đốc 171
binh 171
Đã 171
cột 171
thánh 171
21 170
mò 170
giành 170
mộ 170
bãi 170
bột 170
L 170
đốt 169
ngũ 169
tóc 169
Bu@@ 169
truyện 169
R 169
ạp 168
đài 168
ưng 168
iên 168
ặt 168
chẩn 168
xưa 168
phó 168
dọc 167
thuần 167
ệt 167
răng 167
tụ 166
f@@ 166
huyết 166
rưỡi 166
bạc 166
ac@@ 166
mát 165
miền 165
chừng 165
ton 165
ú 165
tặng 164
gương 164
Ti@@ 164
đĩa 164
Lý 164
chai 164
bia 164
Di@@ 164
hiến 163
iến 163
xâm 163
ném 163
ot@@ 163
si@@ 163
nhấn 163
.. 163
ịch 163
cốt 162
ét 162
vườn 162
Đôi 162
S 162
dy 162
dị 162
ao 162
êng 161
nhỉ 161
khóc 161
trộn 161
xạ 160
ngài 160
ch 160
ắp 160
quê 160
199@@ 160
cẩn 159
d 159
sh@@ 159
tuỳ 159
ke 158
pin 158
st@@ 158
au@@ 158
ộ 158
dính 158
miệng 157
ur@@ 157
ey 157
leo 157
ạng 157
rào 157
Israel 156
tạm 156
bắc 156
huy 156
thẩm 156
đớn 155
đón 155
miêu 155
chu 155
òng 155
Cơ 155
hẹn 154
gà 154
lỏng 154
r 154
ôm 154
ốm 154
Giáo 154
mẩu 154
me@@ 154
tuệ 153
tò 153
nhạy 153
cá@@ 153
đáy 153
phổi 153
ley 153
ngầm 153
ca@@ 153
Re@@ 153
bạch 152
cốc 152
vuông 152
Facebook 152
đậu 152
ry 152
hiệp 152
ia 152
20@@ 151
ộn 151
À 151
game 151
Chắc 151
hạng 151
Cả 150
cường 150
Thời 150
ọc 150
Giống 150
ót 150
ảng 150
ải 150
trôi 150
ine 150
thoảng 150
lão 150
xo@@ 149
tây 149
ọn 149
Chuyện 149
cu@@ 149
hi@@ 149
lu@@ 149
kiên 149
bốt 149
áy 148
Cực 148
thợ 148
quái 148
dàn 148
hoại 148
Mĩ 148
hằng 147
quán 147
rồ 147
trắc 147
California 147
Á 147
nét 147
Thậm 147
tóm 146
DNA 146
ữ 146
úp 146
nướng 146
ặc 146
TED@@ 146
chấn 146
bổ 146
trạm 146
quét 145
giường 145
giày 145
hứa 145
gan 145
ngã 145
17 145
lây 145
blog 145
E 144
lẻ 144
Lan 144
ngựa 144
Ar@@ 144
đảng 144
khô 143
om@@ 143
Kinh 143
đeo 143
T 143
M 143
tuyết 142
ag@@ 142
lưng 142
300 142
mu@@ 142
ụng 142
OK 142
chăng 141
I 141
Lần 141
ắng 141
mẻ 141
Cùng 141
24 141
ngh@@ 141
á@@ 141
op@@ 140
Đến 140
tĩnh 140
Kết 140
iều 140
đếm 140
tiếc 140
mãn 140
ùm 140
kèm 139
Na@@ 139
Nhân 139
ặn 139
ận 139
2000 139
ỷ 139
mèo 139
Ban 138
Ni@@ 138
ninh 138
ề 138
tuy 138
Mc@@ 138
ò 138
Khán 138
Ba@@ 138
Chris 138
bụng 138
trăng 138
ro@@ 138
dán 138
ính 137
ẫy 137
tho@@ 137
hỏng 137
19 137
,@@ 137
gói 137
tám 137
ki@@ 137
cong 136
Bất 136
hô 136
Hu@@ 136
it 136
dã 135
quà 135
ẩy 135
Canada 135
Mexico 135
ủ 135
khuyên 135
ổi 134
vinh 134
trần 134
tiệc 134
ỏi 134
gỡ 134
virus 134
lăn 134
è 133
1.@@ 133
giấu 133
ụ 133
én 133
lôi 133
thói 133
The 133
Nghệ 133
ón 133
mờ 133
co 132
su@@ 132
ỡ 132
ịt 132
Hoá 132
gã 132
Q@@ 132
ter 132
cụm 132
lệnh 131
kênh 131
dứt 131
trốn 131
phiền 131
email 131
chìm 131
Hội 131
lâm 131
ngon 131
AIDS 131
ằng 130
lãm 130
dò 130
Brazil 130
Nga 130
heo 130
Le@@ 130
lặn 130
tung 130
land 130
de@@ 129
giơ 129
bão 129
dư 129
gõ 129
ự 129
Bill 129
tha 129
ng-@@ 129
buôn 129
Se@@ 129
hư 129
ử 129
khao 129
ngọt 129
na 129
đực 129
Mo@@ 129
Mặc 128
thuế 128
ngu 128
at 128
O 128
dao 127
ler 127
Vài 127
Dĩ 127
thăng 127
cất 127
khoan 127
mệnh 127
Úc 127
ớt 127
Điển 127
ản 127
gián 127
Rập 127
is@@ 126
cú 126
ăm 126
bó 126
trưa 126
van 126
one 126
cúm 126
ma@@ 126
iểu 126
su 126
hố 126
N 126
Trường 126
Ber@@ 126
quí 126
thổi 125
à@@ 125
sàn 125
n. 125
b 125
lang 125
Si@@ 125
hang 124
ne 124
Har@@ 124
xinh 124
ếch 124
London 124
bếp 124
bận 124
hàm 124
ham 124
ti 124
tân 124
gu@@ 124
ụt 123
bùng 123
tươi 123
san 123
lõi 123
P 123
dáng 123
Kenya 123
bụi 122
ẹp 122
Gần 122
ce 122
Co@@ 122
ne@@ 122
làn 122
sữa 122
Bar@@ 122
dược 122
Học 122
ì@@ 121
ù 121
ơ@@ 121
quát 121
i. 121
&apos;s 121
khu@@ 121
and@@ 121
rét 121
tị 121
Tiếp 121
ngắm 121
iếu 121
3D 121
nảy 121
khỉ 121
nho 120
cấm 120
hải 120
phì 120
sưu 120
thẻ 120
un@@ 120
Ngh@@ 120
0 120
tắm 120
camera 120
K 120
lường 119
et 119
tí 119
– 119
say 119
liều 119
Iraq 119
et@@ 119
ễn 119
ùa 118
ãi 118
nu@@ 118
ố@@ 118
Khoảng 118
cho@@ 118
ấ@@ 118
cưới 118
thịnh 118
tháp 117
Bài 117
sơn 117
lướt 117
rô 117
lông 117
Hy 117
Bức 117
chúa 117
Thiên 117
uy@@ 117
thùng 116
Trời 116
nở 116
trượt 116
èn 116
rãi 116
nhẫn 116
c-@@ 116
H 116
ga 116
muỗi 116
San 115
ngập 115
nhắm 115
khôn 115
thỉnh 115
ngốc 115
ảy 115
Cộng 115
thám 115
X-quang 115
trục 115
thính 114
te 114
tủ 114
tướng 114
nốt 114
ĩ 114
châm 114
tri@@ 114
pha 114
thua 114
ck 114
nàng 114
feet 114
giam 114
kín 114
te@@ 114
quãng 113
phú 113
thu@@ 113
Ha@@ 113
ngo@@ 113
ỵ 113
Bao 113
Sa@@ 113
sa@@ 113
ày 113
dám 113
àu 113
Y 113
GDP 113
Ra@@ 112
tuý 112
Bố 112
ềm 112
phạt 112
ó 112
xóm 112
Viện 112
khớp 112
dắt 112
CO2 112
400 111
cuộn 111
phái 111
cậy 111
La@@ 111
Hơn 111
nắng 111
sung 111
thiệt 111
tháo 110
ặng 110
oo@@ 110
ạch 110
rau 110
ênh 110
toả 110
Li@@ 110
mạn 109
tông 109
Twitter 109
nhãn 109
Tu@@ 109
trà 109
Je@@ 109
hầm 109
gấu 109
bong 109
nghi@@ 108
khơi 108
cưỡng 108
nọ 108
dãy 108
Ôi 108
uyên 108
tuyển 108
đuôi 108
mũ 107
chước 107
Tương 107
Thành 107
Hệ 107
Bình 107
Mu@@ 107
--@@ 107
ến 107
or 107
Thông 107
Ja@@ 107
thô 106
bớt 106
men 106
ố 106
ửng 106
uyền 106
đâm 106
Chủ 106
vắc 106
òi 106
Này 106
thuẫn 106
lò 106
Einstein 106
chở 105
ranh 105
ter@@ 105
Thử 105
muộn 105
Dương 105
thưa 105
hệt 105
nhở 105
non 105
45 105
Vi@@ 105
ười 105
vở 105
chìa 105
carbon 105
Lo@@ 104
mệt 104
chục 104
lùi 104
Tự 104
điêu 104
lát 104
du@@ 104
Tiếng 104
Chiến 103
ứ 103
ược 103
Số 103
kho 103
hoả 103
lạm 103
slide 103
ick 103
hòn 103
áu 102
bút 102
nợ 102
vua 102
ul@@ 102
đồi 102
Bo@@ 102
Mục 102
ru@@ 102
mỹ 102
phẳng 102
1,@@ 102
đế 102
Paul 102
Ngài 102
Hoả 102
ọng 101
Nha 101
thôn 101
cởi 101
múa 101
bọ 101
Hà 101
khúc 101
sứ 101
trấn 101
đới 101
ve 101
ngực 101
ir@@ 101
gánh 101
&amp; 101
us@@ 101
198@@ 101
150 100
ộp 100
Quan 100
Cập 100
mấu 100
George 100
ba@@ 100
kịp 100
ễ 100
Bảo 100
Ki@@ 100
Khoa 99
Washington 99
ìm 99
Cứ 99
Wal@@ 99
vải 99
sốc 99
rễ 99
ủi 99
Tin 99
Me@@ 99
rung 99
Chiếc 98
duyệt 98
khôi 98
der 98
hãng 98
t-@@ 98
ana 98
mỏi 98
nghiện 98
ên 98
òm 97
thâm 97
Ri@@ 97
Dự 97
ừ 97
2008 97
đi@@ 97
nghịch 97
ượng 97
Charles 97
Hàng 97
Nigeria 97
ngoan 97
ũ 97
èo 97
ráp 97
ya 97
cối 97
hưu 97
website 97
So@@ 97
internet 97
im@@ 96
bi@@ 96
Tốt 96
Hình 96
lưỡng 96
i-@@ 96
ường 96
Loại 96
khẳng 96
nhặt 96
khiếm 96
Thổ 96
Jo@@ 96
địch 95
ke@@ 95
ề@@ 95
ắc 95
vây 95
mâu 95
ou@@ 95
hồng 95
ff@@ 95
cuồng 95
lật 95
ứt 95
nhiếp 95
â@@ 94
hẹp 94
Gu@@ 94
sắt 94
ú@@ 94
Bệnh 94
ng. 94
đố 94
Toàn 94
197@@ 94
phím 94
Thượng 94
oh 94
khói 93
1000 93
ứa 93
Hiệp 93
Oh 93
vươn 93
Rõ 93
Nghe 93
rắn 93
Da@@ 93
Ta@@ 93
Quá 93
rập 93
ỉa 92
xu@@ 92
Á@@ 92
khuyết 92
75 92
MIT 92
mảng 92
Tình 92
Pal@@ 92
nà@@ 92
đàm 92
ế@@ 92
đáo 92
Ne@@ 92
ha 92
long 92
ad 92
ah 91
rửa 91
cừu 91
no@@ 91
ẫn 91
gối 91
ợi 91
Tên 91
ic@@ 91
đoan 91
đẻ 91
khoái 91
ịnh 91
W 91
ạ@@ 90
tần 90
Thomas 90
Sh@@ 90
cạn 90
2.@@ 90
li 90
stress 90
Bắt 89
sạn 89
cướp 89
màng 89
so@@ 89
Mon@@ 89
dải 89
Ok 89
dẻo 89
dạo 89
úc 89
mồi 89
2010 89
ằn 89
Michael 89
ka 89
35 89
ươ@@ 89
treo 88
ớ@@ 88
ron 88
àm 88
vẹn 88
lận 88
X 88
mb@@ 88
Thiết 88
lệch 88
manh 88
đạn 88
Pakistan 88
Bên 88
chín 88
Ngân 88
ết 88
ươi 88
mo@@ 88
0,000 88
ngu@@ 88
Máy 88
De@@ 88
trân 88
đạc 87
bơm 87
ộng 87
Los 87
lợn 87
ỉnh 87
Dân 87
Tiến 87
dâm 87
cắm 87
Cha 87
nô 87
Be@@ 86
đền 86
ộ@@ 86
cắp 86
gene 86
Thu@@ 86
xi 86
vĩnh 86
quyên 86
bắp 85
Hàn 85
tuân 85
ìa 85
ẽ 85
lin 85
iếm 85
lờ 85
que 85
bọc 85
khiêu 85
Cam@@ 85
ển 85
kiệt 85
buýt 85
um 85
kẹt 85
der@@ 85
ơm 85
khuynh 85
kẹo 85
Cu@@ 85
GPS 85
iệt 84
ấc 84
óng 84
chúc 84
huyền 84
Âm 84
Kể 84
nhàng 84
ate 84
nhầm 84
dọn 84
mòn 84
Nơi 84
lấp 84
Adam 84
ev@@ 84
re 84
Haiti 84
km 84
len 83
ậu 83
đỗ 83
thắc 83
xám 83
iếp 83
ir 83
ven 83
óm 83
giãn 83
tựa 83
V 83
cacbon 83
đai 83
Phụ 83
lũng 82
ình 82
Chà 82
ể 82
Ste@@ 82
mười 82
mồ 82
trú 82
amp 82
củ@@ 82
y. 81
cương 81
thằng 81
ẹo 81
mọc 81
mỏng 81
Mình 81
thép 81
chăn 81
nơ-ron 81
ck@@ 81
vay 81
vỗ 81
cựu 81
mar@@ 81
Lin@@ 81
Du@@ 81
ễu 81
Al 81
qui 80
dở 80
ạm 80
khéo 80
Tuyệt 80
lơ 80
Lạp 80
Tổng 80
ụi 80
man@@ 80
ob@@ 80
nêu 80
Nước 80
íp 80
đợt 80
vượng 80
ngừa 80
vé 80
co@@ 80
James 80
ín 80
nát 80
Nghiên 79
sôi 79
ýt 79
w 79
ỉ@@ 79
Hải 79
bá 79
dũng 79
hôi 79
dốc 79
ar 79
rẽ 79
eo 79
PM 79
ga@@ 79
Richard 79
id@@ 78
the@@ 78
xôi 78
ds 78
lượt 78
chợ 78
ack@@ 78
St@@ 78
2007 78
of 78
Điểm 78
thoái 78
Pa@@ 78
Tổ 78
the 78
Đồng 78
hạch 77
ửi 77
hung 77
TEDx@@ 77
Ge@@ 77
éo 77
nén 77
nản 77
bỗng 77
Bi@@ 77
ỳ 77
mày 77
F 77
phác 77
Bal@@ 77
hoài 77
Ju@@ 77
n-- 76
ủa 76
thầm 76
Dan 76
dội 76
vang 76
bách 76
chả 76
ea@@ 76
trật 76
ary 76
Robert 76
ữa 76
Quý 76
Talk 76
ọi 75
pho 75
trừu 75
Sinh 75
La 75
ọ 75
ắm 75
xíu 75
ans 75
by 75
nghiệt 75
bấy 75
òn 75
Bác 75
ẩu 75
ina 75
Phương 75
tiễn 75
gác 75
chua 75
ol 75
ửa 74
ee@@ 74
Ru@@ 74
hụt 74
nụ 74
bìa 74
sh 74
lắc 74
ư@@ 74
ượ@@ 74
NASA 74
col@@ 74
cổng 74
Obama 74
muối 73
do@@ 73
Thánh 73
thẳm 73
600 73
May 73
iPhone 73
ing 73
Steve 73
đà 73
ruồi 73
50@@ 73
No@@ 73
ều 72
se@@ 72
nề 72
ùn 72
trộm 72
vụn 72
Trẻ 72
ker 72
ẳng 72
soạn 72
mộng 72
ard 72
thổ 72
nơ 72
ão 72
đẽ 72
ếp 72
xích 72
ep@@ 72
kg 72
giặt 72
bướ@@ 72
xăng 72
súc 72
lúa 72
be@@ 72
ala@@ 71
mươi 71
ván 71
rũ 71
ẫm 71
xưởng 71
y-- 71
za 71
Đi 71
chợt 71
ùi 71
me 71
xướng 71
gũi 71
Chào 71
Wikipedia 71
tráng 70
ney 70
Po@@ 70
2009 70
hacker 70
bê 70
nhu@@ 70
ừ@@ 70
khoáng 70
tím 70
ị@@ 70
Harvard 70
mượn 70
Do@@ 70
c. 70
Hoà 70
ngẫm 70
chẽ 70
ama 70
ưới 70
Tưởng 70
Col@@ 70
hy@@ 70
cống 69
úi 69
ner 69
Lấy 69
hét 69
--- 69
dro 69
Gia 69
độn 69
ver 69
i-- 69
quặc 69
bẩn 69
23 69
ă@@ 69
lân 69
nhường 69
trán 69
ang@@ 69
Darwin 69
ut 69
quyến 69
cược 69
65 69
Wi@@ 69
Bro@@ 69
Nghĩa 69
nhào 69
dỗ 69
Derek 69
Francisco 68
Điện 68
mến 68
go@@ 68
nhạt 68
id 68
ho 68
hò 68
Giá 68
ẻo 68
Angeles 68
nồng 68
Tor@@ 68
bám 68
run 68
ợ 68
tu 68
Qua 68
ỗ 68
Mal@@ 68
Paris 68
go 68
a-@@ 68
Nobel 68
ster 68
gìn 68
Giọng 68
lều 68
eria 68
bấm 68
40@@ 68
sáo 67
Chị 67
rỗng 67
sét 67
óp 67
ruột 67
sắm 67
Martin 67
úa 67
mãnh 67
lánh 67
hiếp 67
vir@@ 67
Go@@ 67
Rob@@ 66
thấm 66
na@@ 66
Loài 66
mổ 66
Cần 66
ray 66
cài 66
chôn 66
27 66
22 66
luỹ 66
Ben@@ 66
ảm 66
Đấy 66
Nguyên 66
196@@ 66
U 66
radio 66
phun 66
logic 66
lùng 66
nhện 66
15@@ 65
thung 65
MRI 65
giọt 65
Sahara 65
vạch 65
all 65
hóc 65
amin 65
Cháu 65
bo@@ 65
ore 65
Con@@ 65
ó@@ 65
berg 65
xuân 65
Quỹ 65
lồng 65
ber@@ 65
uy 65
xăm 64
í@@ 64
2005 64
lỡ 64
Mark 64
Or@@ 64
tê 64
hãm 64
ườn 64
thượng 64
ắ@@ 64
Ngoài 64
huynh 64
Nhĩ 64
ts 64
chọc 64
Bur@@ 64
ạy 64
US@@ 64
triệt 64
Fi@@ 64
iển 63
&apos;@@ 63
léo 63
bóc 63
He@@ 63
Big 63
lăng 63
ổng 63
oc@@ 63
Giải 63
den 63
00@@ 63
Sĩ 63
móng 63
Tư 63
vòi 63
Amazon 63
tivi 63
Pi@@ 62
ane 62
Tom 62
oxytocin 62
ựa 62
ãnh 62
99 62
đc 62
ge@@ 62
Manhattan 62
lề 62
Alzheimer 62
vịnh 62
Sức 62
In@@ 62
tựu 62
,000 61
Peter 61
Per@@ 61
ịa 61
ờ@@ 61
ãy 61
vứt 61
Bang 61
chằm 61
Tác 61
tuỷ 61
phi@@ 61
ng-- 61
ve@@ 61
Chicago 61
khiêm 61
chớp 61
he@@ 61
Boston 61
chuông 61
mỳ 61
quạ 61
Đảng 61
bon 61
thắt 60
Rwanda 60
lưỡi 60
kìa 60
nhiễu 60
ẫu 60
vờ 60
Bước 60
Ed@@ 60
đô-la 60
bốc 60
Thường 60
t. 60
26 60
95 60
ngẩn 60
Joe 60
luồng 60
Ả@@ 60
laptop 60
nếp 60
Man@@ 60
uyến 60
ari@@ 60
inch 60
Thưa 60
Đường 60
võng 60
ey@@ 60
đóm 60
ụ@@ 59
kiêng 59
dịp 59
Smith 59
gạch 59
ell 59
nano 59
Cá 59
Eric 59
hoan 59
hoành 59
Chưa 59
dan 59
Văn 59
ren 59
èm 59
v.@@ 59
ngưng 59
đo@@ 59
lay 59
lam 59
bồi 59
PA 59
xà 59
ce@@ 59
đoạt 59
ota 59
xy 59
Uy 59
Luật 59
sọ 58
khoăn 58
ãng 58
đuối 58
nhóc 58
ưởi 58
II 58
Pe@@ 58
2,@@ 58
Thì 58
ngớ 58
hít 58
29 58
Đơn 58
28 58
You@@ 58
cọ 58
đúc 58
Thêm 58
mer 58
ut@@ 58
Xem 58
Giai 58
đôla 58
ợ@@ 58
lui 58
ịu 57
Mil@@ 57
ệ@@ 57
é@@ 57
đó@@ 57
Đứa 57
art 57
đậm 57
đu@@ 57
pp@@ 57
Ka@@ 57
Par@@ 57
Phát 57
nan 57
ậ@@ 57
ali@@ 57
Trở 57
se 57
ten 57
San@@ 57
golf 57
gậy 57
CA@@ 57
hận 57
Gabby 57
ren@@ 56
canh 56
2006 56
ack 56
rỉ 56
ngột 56
Hành 56
ỏ@@ 56
ât 56
vả 56
hoãn 56
ny 56
mỡ 56
o-@@ 56
hổng 56
ệm 56
nhủ 56
nàn 56
wi@@ 56
Động 56
mm 56
Hợp 56
Vật 56
sey 56
Jon@@ 56
Her@@ 56
ôt 56
1990 56
2011 56
ghê 56
Đo@@ 56
0.@@ 56
bể 56
Subtitles 56
Transcript 56
nhánh 55
Phòng 55
giật 55
195@@ 55
Khá 55
băn 55
Đa 55
gãy 55
ran@@ 55
ene@@ 55
ua 55
po@@ 55
iện 55
Quay 55
Việt 55
gom 55
vội 55
Bab@@ 55
Tri@@ 55
ũng 55
Apple 55
ồm 55
tiệm 55
mon@@ 55
chuyền 55
điền 55
nghẽn 55
tuỵ 55
Na 55
Times 55
bầy 55
quỷ 55
oxy 55
En@@ 54
xé 54
cent 54
ườ@@ 54
vất 54
ớn 54
J 54
ot 54
ria 54
sha@@ 54
st 54
ther 54
ei@@ 54
ani@@ 54
bert 54
ừa 54
Koran 54
Rio 53
my 53
Sch@@ 53
2004 53
Okay 53
ía 53
ậm 53
illi@@ 53
per@@ 53
Gates 53
.com 53
Bra@@ 53
Ư@@ 53
ver@@ 53
ax@@ 53
Bon@@ 53
00 52
ela 52
ự@@ 52
Mel@@ 52
iệ@@ 52
Tony 52
da@@ 52
Ca@@ 52
les 52
th 52
2003 52
ff 52
ượn 52
gai 52
Ke@@ 52
1960 52
Cal@@ 52
ose 52
ling 52
Ga@@ 52
33 52
Green@@ 52
ếm 52
iệu 51
Frank 51
Ben 51
Howard 51
ướt 51
ki 51
AR@@ 51
Mat@@ 51
ạnh 51
tw@@ 51
iếc 51
Jen@@ 51
Au@@ 50
Cha@@ 50
Sha@@ 50
Ari@@ 50
ầ@@ 50
ja 50
War@@ 50
Henry 50
Gal@@ 50
em@@ 50
vaccine 50
Em@@ 50
aw@@ 50
clip 50
n-@@ 50
1970 50
250 50
Q 50
cal@@ 49
âng 49
piano 49
uyết 49
ẹn 49
origami 49
iP@@ 49
YouTube 49
32 49
nho@@ 49
phe 49
Congo 49
bon@@ 49
ox@@ 49
ộm 48
ỏng 48
17@@ 48
ậy 48
yl@@ 48
Brian 48
ựng 48
ợn 48
Ghana 48
ả@@ 48
ỹ 48
din@@ 48
Shi@@ 48
car@@ 48
Uganda 48
Yemen 48
cr@@ 48
studio 48
Den@@ 48
ci@@ 48
10,000 47
age 47
ởi 47
iếng 47
Gr@@ 47
mi 47
ở@@ 47
ic 47
ick@@ 47
ger 47
Rom@@ 47
Coca-Cola 47
ẽ@@ 47
ins 47
MT 47
Microsoft 47
LED 47
Ford 47
ara@@ 47
Higgs 47
ig@@ 46
jazz 46
os 46
khi@@ 46
est 46
cel@@ 46
Oxford 46
ence 46
Lego 46
Jac@@ 46
bin 46
ves 46
f 46
Sau@@ 46
1950 46
úm 46
bo 46
Cambridge 45
au 45
El@@ 45
Í@@ 45
Syria 45
31 45
our@@ 45
ững 45
ant 45
Juli@@ 45
od 45
Ros@@ 45
Ali@@ 45
King 45
Kim 45
Mad@@ 45
CH@@ 45
Web 45
ham@@ 45
Aristotle 45
85 45
ãn 44
194@@ 44
ale 44
Ừ 44
Phili@@ 44
2001 44
Taliban 44
Fer@@ 44
120 44
Ser@@ 44
pi@@ 44
Jer@@ 44
gar@@ 44
ri 44
Bush 44
fe 44
Wil@@ 44
Sar@@ 44
Stanford 44
Neanderth@@ 44
SW 44
gie 43
— 43
ford 43
800 43
Texas 43
She@@ 43
Lee 43
m. 43
Bang@@ 43
Amy 43
ẹ@@ 43
Wh@@ 43
amp@@ 43
Florida 43
ứu 43
si 43
Di 43
pizza 43
Ngo@@ 43
stan 43
Hans 43
Charlie 43
Yeah 43
Ala@@ 43
wa@@ 43
then 42
king 42
At@@ 42
ớm 42
ỡ@@ 42
era 42
Ken@@ 42
Mur@@ 42
online 42
il 42
red 42
16@@ 42
Tim 42
Arthur 42
fi@@ 42
Ven@@ 42
Bos@@ 42
quad 42
entropy 42
ica 41
ten@@ 41
ec@@ 41
Star@@ 41
36 41
30@@ 41
ania 41
olly 41
ster@@ 41
5,000 41
ượt 41
ow 41
tic 41
Mor@@ 41
1980 41
Am@@ 41
Gol@@ 41
Ai@@ 41
Pla@@ 41
Tur@@ 41
pe@@ 41
Lib@@ 41
Jim 40
Jor@@ 40
bar 40
hop 40
2050 40
enz@@ 40
yl 40
ony 40
3.@@ 40
My@@ 40
Hy@@ 40
Brown 40
700 40
tube 40
ban@@ 40
Wall 40
ks 40
Chi@@ 40
ama@@ 40
micro@@ 40
gram 40
Ko@@ 40
Cyrus 40
Fre@@ 40
ine@@ 40
car 40
gay 40
Ku@@ 40
Mis@@ 40
hen 40
ser@@ 40
ko@@ 40
kins 40
ze@@ 39
ora 39
burg 39
Dis@@ 39
Latin 39
pro@@ 39
pu@@ 39
well 39
yan 39
2,000 39
Tit@@ 39
chip 39
bot 39
An 39
Daniel 39
min@@ 39
Gar@@ 39
ice 39
Han@@ 39
Rosling 39
ữ@@ 39
Gra@@ 39
ino 39
low 39
PT@@ 39
atch 39
Norden 39
14@@ 38
ện 38
Palestine 38
ome 38
Scotland 38
ill 38
we 38
ward 38
Stephen 38
37 38
ũ@@ 38
Mike 38
laser 38
Abraham 38
gas 38
William 38
Ky@@ 38
Mandela 38
ìn 38
Andrew 38
phia 38
CEO 38
ory 38
Pen@@ 38
Gore 38
ill@@ 38
ardo 38
Watson 38
Detroit 38
insulin 38
Hollywood 37
Mos@@ 37
burgh 37
way 37
met 37
Som@@ 37
zz@@ 37
be 37
Wow 37
Ab@@ 37
õ 37
World 37
show 37
fer 37
ith 37
are 37
ex@@ 37
We@@ 37
q@@ 37
Ray 37
Indonesia 37
Cor@@ 37
Mas@@ 37
ansas 37
Bol@@ 37
Cher@@ 37
Prin@@ 37
Wor@@ 37
Singapore 37
Gan@@ 37
Cap@@ 36
ợt 36
dam 36
ed@@ 36
ni 36
ran 36
gos 36
had 36
55 36
Pr@@ 36
For@@ 36
Min@@ 36
200@@ 36
fan 36
BC 36
Sal@@ 36
Laden 36
Nelson 36
Iceland 36
tro@@ 36
par@@ 36
Free@@ 36
cus 36
Bay 36
ưởng 36
Ac@@ 36
ể@@ 35
DVD 35
Shakespeare 35
Carolina 35
ville 35
Mah@@ 35
Bob 35
Long 35
2002 35
Zealand 35
Br@@ 35
Pau@@ 35
48 35
3,@@ 35
pe 35
pound 35
marketing 35
logo 35
ow@@ 35
Nor@@ 35
net 35
2012 35
Ah@@ 35
hor@@ 35
Nan@@ 35
ester 35
tru@@ 35
Montana 35
Chri@@ 34
+ 34
Kevin 34
yn 34
C. 34
nia 34
vit@@ 34
Bronx 34
Haw@@ 34
Ter@@ 34
Ad@@ 34
ử@@ 34
Gre@@ 34
IBM 34
Sus@@ 34
Silicon 34
DA 34
Joshua 34
ưỡi 34
om 34
ED 34
lie 34
Atlan@@ 34
Newton 34
scan 34
Pan@@ 34
nie 34
42 34
atar 34
ja@@ 34
sto@@ 33
Char@@ 33
pol@@ 33
sen 33
iệm 33
ok 33
Street 33
Berk@@ 33
1999 33
xi@@ 33
Kar@@ 33
Joseph 33
Lau@@ 33
Hel@@ 33
con@@ 33
gel 33
y-@@ 33
Sam 33
South 33
mp@@ 33
lan@@ 33
Chile 33
burger 33
Ham@@ 33
100,000 33
Donald 33
br@@ 33
pa@@ 33
toilet 33
Delhi 33
ola 33
ẻ@@ 33
dd@@ 33
org@@ 33
devil 33
Gandhi 32
ou 32
Lou@@ 32
ky@@ 32
Sher@@ 32
Lewis 32
ĩa 32
Lak@@ 32
ws 32
od@@ 32
mal@@ 32
Mer@@ 32
ệch 32
Dou@@ 32
jo 32
ak 32
we@@ 32
Win@@ 32
Pro@@ 32
bar@@ 32
Alexander 32
va@@ 32
Wright 32
Phil@@ 32
ons 32
Van 32
BJ 32
1900 32
Lar@@ 32
ằm 32
men@@ 32
more 32
Colom@@ 32
ịp 32
ai@@ 32
Wolfram 32
Alpha 32
Stewart 31
34 31
micr@@ 31
bor@@ 31
uni@@ 31
vu@@ 31
ứ@@ 31
ort 31
ak@@ 31
af@@ 31
38 31
I.@@ 31
Kin@@ 31
gh 31
ặm 31
Sky@@ 31
wan@@ 31
Fri@@ 31
des 31
BI 31
eri@@ 31
Ted 31
click 31
Zimb@@ 31
fu@@ 31
watt 31
kie 31
pr@@ 31
Fe@@ 31
ỳ@@ 31
St. 31
dri@@ 31
ẳn 31
nes@@ 31
SO@@ 31
Leon@@ 31
Bil@@ 31
Qaeda 31
WK 31
GG 31
AM 30
64 30
Gen@@ 30
opia 30
alia 30
cou@@ 30
ổ@@ 30
CD 30
Colum@@ 30
Es@@ 30
dollar 30
nik 30
bus 30
Ă@@ 30
MS 30
phone 30
1984 30
ort@@ 30
Simon 30
Os@@ 30
Olympic 30
ite 30
electron 30
ồ@@ 30
õi 30
ll 30
Kenne@@ 30
Matt 30
dr@@ 30
dio 30
ky 30
ano 30
ska 30
JH 30
Sarah 30
2030 30
glu@@ 30
ps 30
Jill 30
chel 29
ngton 29
Elizab@@ 29
eth 29
Brooklyn 29
Franc@@ 29
Moz@@ 29
Te@@ 29
Moore 29
thal@@ 29
wer@@ 29
Johnny 29
BA 29
Jan@@ 29
Ethi@@ 29
RNA 29
eet 29
58 29
val@@ 29
TEDGlobal 29
sp@@ 29
98 29
72 29
Mac@@ 29
Virginia 29
Copenhagen 29
Tanzania 29
Ker@@ 29
har@@ 29
ye 29
Julia 29
Bla@@ 29
uyệt 29
Jones 29
Parkinson 29
họ@@ 29
25@@ 29
wit@@ 29
96 29
tor 29
Joh@@ 29
Ken 29
Bot@@ 29
IN@@ 29
ES@@ 29
Frank@@ 28
stein 28
ft 28
õ@@ 28
Scott 28
bas@@ 28
war@@ 28
etti 28
for@@ 28
nhi@@ 28
Jay 28
Ever@@ 28
ss 28
opera 28
E.@@ 28
Cra@@ 28
Lan@@ 28
ry@@ 28
Jerusalem 28
ffer@@ 28
per 28
Tah@@ 28
Gor@@ 28
don 28
Cri@@ 28
lar@@ 28
NI@@ 28
no 28
ge 28
dopamine 28
SA 28
can@@ 28
S. 28
albu@@ 28
John@@ 28
Hir@@ 28
by@@ 28
viol@@ 28
ý@@ 28
mann 28
Ver@@ 28
Argenti@@ 28
High 28
Teszler 28
EDI 28
gen@@ 27
Alex 27
pop 27
aria 27
Ang@@ 27
IM@@ 27
Fo@@ 27
ẵn 27
ếu 27
ans@@ 27
sk@@ 27
ụp 27
AO 27
Clinton 27
athan 27
ens 27
ớp 27
ss@@ 27
MA 27
ena 27
Sylvia 27
Hun@@ 27
abi@@ 27
len@@ 27
iểm 27
Victori@@ 27
licon 27
poster 27
vis 27
Jack 27
sky 27
ướ@@ 27
Stu@@ 27
Man 27
Far@@ 27
vo@@ 27
ate@@ 27
Line 27
El 26
Bel@@ 26
ỗng 26
tie 26
Ah 26
rock 26
Sin@@ 26
Hawai@@ 26
gger 26
New@@ 26
dy@@ 26
ila 26
nă@@ 26
apa@@ 26
ụn 26
lung 26
Mag@@ 26
Sierra 26
ers 26
Gil@@ 26
med 26
Ô 26
sin 26
cher 26
Muhammad 26
aren 26
oper@@ 26
Tes@@ 26
old 26
un 26
ico 26
OECD 26
via 26
ori@@ 26
pherom@@ 26
sy 26
dre@@ 25
50,000 25
Hea@@ 25
ash@@ 25
oss 25
Sp@@ 25
Pu@@ 25
ding 25
bie 25
Cho@@ 25
enti@@ 25
put@@ 25
nger 25
Can@@ 25
ô-la 25
ris 25
Hi 25
ech 25
Pop@@ 25
tal@@ 25
Ol@@ 25
Hi@@ 25
National 25
ther@@ 25
12@@ 25
Don@@ 25
dge 25
Pol@@ 25
ics 25
prot@@ 25
ợp 25
ion 25
ns 25
ton@@ 25
are@@ 25
Ex@@ 25
elly 25
Tasmanian 25
Tas@@ 25
Bell 25
ket@@ 25
up@@ 25
yle 25
Eve 24
khuy@@ 24
mar 24
bucks 24
ựu 24
Point 24
Christi@@ 24
town 24
Spe@@ 24
SS 24
Vo@@ 24
ĩnh 24
ze 24
top 24
A. 24
itch@@ 24
kin@@ 24
foot 24
iti 24
City 24
Afgh@@ 24
p-@@ 24
zon@@ 24
nis 24
lin@@ 24
den@@ 24
ester@@ 24
So 24
ọ@@ 24
zi@@ 24
= 24
Cru@@ 24
ario 23
ẩ@@ 23
ẹ 23
Lea@@ 23
ễ@@ 23
L.@@ 23
Tom@@ 23
een 23
Wol@@ 23
In 23
ac 23
gra@@ 23
Bir@@ 23
Phi@@ 23
CE@@ 23
ẵ@@ 23
Pri@@ 23
tric 23
s-@@ 23
lor 23
… 23
Willi@@ 23
Ger@@ 23
bit 23
yeah 23
ting 23
ble 23
Str@@ 23
Ứ@@ 23
Com@@ 23
ear 23
wr@@ 23
Euro@@ 23
ly@@ 23
Bl@@ 23
yn@@ 23
vember 23
cat@@ 23
mail 23
ju@@ 22
ach 22
bal@@ 22
poly@@ 22
field 22
Air@@ 22
Dar@@ 22
attle 22
fa@@ 22
kil@@ 22
1,000 22
ơ-@@ 22
Gla@@ 22
ters 22
cla@@ 22
Hom@@ 22
Sy@@ 22
ani 22
est@@ 22
cor@@ 22
A-@@ 22
Dur@@ 22
of@@ 22
ber 22
pest 22
key 22
Fran@@ 22
ken 22
oto 22
ĩ@@ 22
ed 22
sy@@ 22
lot@@ 22
Dan@@ 22
Earth 22
24@@ 22
Pas@@ 22
air@@ 22
Pre@@ 22
bec@@ 22
bat@@ 22
Wiki@@ 22
oun@@ 22
Geor@@ 22
mili@@ 21
sta@@ 21
vard 21
ide@@ 21
) 21
each 21
West 21
onto 21
3,000 21
.C. 21
Por@@ 21
quy@@ 21
net@@ 21
ami 21
Jesus 21
fe@@ 21
phot@@ 21
ome@@ 21
dia 21
je@@ 21
cer@@ 21
Wa@@ 21
str@@ 21
sia 21
ole 21
olu@@ 21
ason 21
sure 21
ego 21
Ty@@ 21
ore@@ 21
Time 21
ess@@ 21
ven@@ 21
ops 21
ise 21
ướp 21
cal 21
ech@@ 21
file 21
race 21
tar 20
Yorker 20
van@@ 20
Ờ 20
Is@@ 20
Great 20
Women 20
ain 20
wood 20
The@@ 20
acy 20
ém 20
reg@@ 20
dian 20
ald 20
sti@@ 20
Hol@@ 20
Trea@@ 20
iệp 20
uyện 20
Cy@@ 20
cac@@ 20
tech 20
sal@@ 20
shi@@ 20
oud 20
tica 20
oli@@ 20
any 20
berry 20
Wat@@ 20
pl@@ 20
him 20
acc@@ 20
eng@@ 20
cy 20
let 20
oni@@ 20
Swe@@ 20
teen 19
Brit@@ 19
nan@@ 19
Tal@@ 19
sel 19
ros@@ 19
ture 19
tuy@@ 19
Island 19
yst@@ 19
ty@@ 19
0-@@ 19
fur 19
ight 19
Uni@@ 19
chol@@ 19
tic@@ 19
marath@@ 19
ire 19
ada 19
liver 19
ates 19
ographic 19
ram 19
eep 19
lic 19
chan@@ 19
North 19
sex 19
Don 19
del 19
che@@ 19
ầng 19
Park 19
B. 19
ero@@ 19
ys 19
hel@@ 19
Nu@@ 19
link 19
imp@@ 19
DP 19
blo@@ 19
dad 19
ash 19
j 19
Zi@@ 19
Shar@@ 19
ngs 19
spa@@ 19
games 19
password 19
ms 18
shock 18
neuron 18
Leban@@ 18
die 18
ines 18
line 18
Carol@@ 18
rane 18
Stan@@ 18
Ẩ@@ 18
Ox@@ 18
State 18
ger@@ 18
On@@ 18
Gh@@ 18
Jos@@ 18
you 18
tion 18
Blue 18
Indi@@ 18
thy 18
Bri@@ 18
ini@@ 18
ris@@ 18
see 18
Hop@@ 18
Well 18
sul@@ 18
Z 18
all@@ 18
lar 18
Ira@@ 18
stone 18
ones 18
pra@@ 18
è@@ 18
mon 18
rap 18
ites 18
coo@@ 18
ering 18
off 17
East 17
Rea@@ 17
Ừ@@ 17
iế@@ 17
# 17
ụm 17
set@@ 17
20,000 17
gall@@ 17
American 17
Ci@@ 17
anda 17
manu@@ 17
bri@@ 17
You 17
Like 17
sion 17
pla@@ 17
tre@@ 17
com@@ 17
copy 17
vel@@ 17
ear@@ 17
íu 17
son@@ 17
ent 17
gn@@ 17
tian 17
sun@@ 17
lack 17
ysi@@ 16
Sun@@ 16
tan@@ 16
ager 16
side 16
iể@@ 16
ug@@ 16
Tru@@ 16
wer 16
fel@@ 16
sin@@ 16
gl@@ 16
Pic@@ 16
gam@@ 16
nec@@ 16
gal 16
NA@@ 16
Ô@@ 16
pen@@ 16
dor@@ 16
oth 16
Del@@ 16
30,000 16
ation 16
ink 16
Fin@@ 16
cen@@ 16
m-@@ 16
sandwich 16
Rus@@ 16
cin@@ 16
wee@@ 16
Gab@@ 16
cot@@ 16
Fu@@ 16
nic@@ 16
corn 16
ond 16
ams 16
D. 16
my@@ 16
lium 16
Eli@@ 16
emp@@ 16
bun@@ 16
osaur@@ 16
ills 16
f-@@ 16
wo@@ 16
bio@@ 15
liệ@@ 15
ost 15
Af@@ 15
win 15
ner@@ 15
ron@@ 15
Vir@@ 15
rou@@ 15
int 15
ambi@@ 15
let@@ 15
mer@@ 15
Econ@@ 15
zero 15
sters 15
As@@ 15
Hon@@ 15
day 15
ủ@@ 15
tom@@ 15
yes 15
ç@@ 15
ằ@@ 15
bl@@ 15
l-@@ 15
White 15
sell 15
lic@@ 15
TE@@ 15
eu@@ 15
eline 15
Inter@@ 15
4,000 15
sus 15
God 15
CO@@ 15
res 15
Angel@@ 14
bre@@ 14
hip 14
war 14
mix 14
ant@@ 14
dụ@@ 14
hal@@ 14
Art 14
Fellow 14
tour 14
com 14
run@@ 14
0s 14
Hal@@ 14
ere@@ 14
Fa@@ 14
Broo@@ 14
burn 14
ame 14
cky 14
Olymp@@ 14
ath 14
ago 14
ã@@ 14
fli@@ 14
Â@@ 14
alu@@ 14
bes 14
lyn 14
toc@@ 14
an-@@ 14
ors 14
Ấ@@ 14
Ổ@@ 14
ally 14
Green 14
BM 14
lau@@ 14
eck 14
vey 14
thema@@ 14
chocolate 14
water 14
lli@@ 13
strong 13
Alex@@ 13
Prize 13
load 13
rea@@ 13
mp 13
pri@@ 13
Ear@@ 13
obs 13
Sur@@ 13
als 13
ôla 13
cock@@ 13
tail 13
ian 13
Cop@@ 13
HI@@ 13
House 13
ders 13
pper 13
lec@@ 13
mic 13
ous@@ 13
ls 13
unk 13
Central 13
ew 13
app@@ 13
lock 13
anic 13
Red 13
Phot@@ 13
west 13
any@@ 13
ssi@@ 13
Blu@@ 13
rac@@ 13
ats 13
end 13
lit@@ 13
Foundation 13
sty 13
arti@@ 13
oul@@ 13
Australia 13
ep 13
qui@@ 13
Mars 13
bs 13
flu 13
osphere 13
sten 12
ough 12
ca-@@ 12
ames 12
stream 12
ặ@@ 12
ểu 12
chuy@@ 12
pon@@ 12
enter 12
nd 12
guy 12
agu@@ 12
don@@ 12
set 12
rid 12
how 12
cli@@ 12
kes 12
e-@@ 12
abu@@ 12
our 12
ele@@ 12
bra@@ 12
Ơ@@ 12
Lad@@ 12
star@@ 12
ím 12
ue 12
zar@@ 12
att@@ 12
Ital@@ 12
shall 12
Hey 12
ace@@ 12
lab 12
dow 12
gt 12
lt 12
ound 12
ras@@ 12
sm@@ 12
gin 12
box 12
ead 12
nit@@ 12
low@@ 12
ots 12
fer@@ 12
iso@@ 12
ind 12
bro@@ 12
shy 12
gy@@ 12
ery 12
sho@@ 12
ID@@ 12
arre@@ 12
dem@@ 11
ẫ@@ 11
organ 11
eth@@ 11
ches 11
zer 11
anistan 11
( 11
cha@@ 11
wn 11
My 11
It 11
À@@ 11
ood 11
gro@@ 11
ji@@ 11
ist 11
web@@ 11
dle 11
dows 11
dic@@ 11
tes 11
England 11
¼ 11
gg@@ 11
acking 11
civi@@ 11
zz 11
up 11
phere 11
X-@@ 11
dro@@ 11
ặp 11
rent 11
Bec@@ 11
row 11
now@@ 11
zy 11
Talks 11
eni@@ 11
ree 11
Rec@@ 11
lev@@ 11
gic 11
sof@@ 11
ann@@ 11
adu@@ 11
quar@@ 11
able 11
Eng@@ 11
Day 11
rain 11
centi@@ 11
ants 11
um@@ 11
ast 11
trick 11
ques 11
​ 11
rit@@ 11
lớ@@ 11
Vic@@ 11
okay 11
neu@@ 11
ote 11
bla@@ 11
cks 11
art@@ 11
dar 11
fla@@ 11
jihad 11
alo@@ 11
xide 11
Hig@@ 11
complex 11
ỵ@@ 10
ely 10
zer@@ 10
ite@@ 10
yer 10
ò@@ 10
gue 10
AD@@ 10
Coun@@ 10
atur@@ 10
tune 10
University 10
Dr. 10
blu@@ 10
Chin@@ 10
India 10
ace 10
kilo@@ 10
ess 10
ath@@ 10
bits 10
robots 10
U.@@ 10
ever 10
@ 10
sour@@ 10
acr@@ 10
suit 10
ưỡng 10
aur@@ 10
eda 10
Go 10
Science 10
dollars 10
ù@@ 10
ord 10
mil@@ 10
al-@@ 10
õng 10
char@@ 10
Fr@@ 10
ur 10
ein 10
tra@@ 10
NG@@ 10
gr@@ 10
roll 10
nat@@ 10
zza 10
ữu 10
tive 10
ness 10
School 10
One 10
ance 10
arm@@ 10
Chil@@ 10
scap@@ 10
une 10
hol@@ 10
zo@@ 10
tal 10
lot 10
engineering 10
lus 10
ony@@ 10
bloo@@ 10
Will 9
cow 9
̣ 9
allo@@ 9
Sec@@ 9
bright 9
hom@@ 9
sel@@ 9
hit 9
grass 9
ươn 9
rich 9
stry 9
aga@@ 9
tor@@ 9
wl 9
ee 9
house 9
America 9
for 9
Sim@@ 9
han@@ 9
pounds 9
Scot@@ 9
dop@@ 9
res@@ 9
ical 9
cents 9
etc 9
App@@ 9
cau@@ 9
ming 9
out@@ 9
Yor@@ 9
ffi@@ 9
ful 9
Sun 9
Valley 9
cle@@ 9
ast@@ 9
wait 9
athy 9
ese 9
Sou@@ 9
ste@@ 9
thers 9
aps 9
Arab 9
Goog@@ 9
sc@@ 9
eli@@ 9
ski@@ 9
off@@ 9
tions 9
Demo@@ 9
lim@@ 9
whi@@ 9
flu@@ 9
sian 9
master 9
Inst@@ 9
tin@@ 9
dam@@ 9
dies 9
gor@@ 9
ass 9
point 9
series 9
_ 9
Me 9
val 9
awesome 9
dol@@ 8
ars 8
nge 8
Mic@@ 8
Israel@@ 8
ril@@ 8
More 8
Ê 8
anti@@ 8
lose 8
tle 8
Ộ@@ 8
ste 8
Goo@@ 8
lou@@ 8
leep 8
ater 8
san@@ 8
view 8
ũi 8
ish 8
tree 8
tics 8
chil@@ 8
oph@@ 8
sil@@ 8
evi@@ 8
mit 8
in-@@ 8
cer 8
ange 8
Bron@@ 8
ning 8
own 8
worth 8
cy@@ 8
To 8
ket 8
sing 8
over 8
ces 8
bble 8
đị@@ 8
ple@@ 8
lig@@ 8
ity 8
try 8
Hen@@ 8
he 8
Rw@@ 8
nal 8
Tra@@ 8
out 8
gers 8
zon 8
tiế@@ 8
Bank 8
glob@@ 8
ava@@ 8
ander 8
sau@@ 8
eets 8
els 8
tus 8
cos@@ 8
ượu 8
rup@@ 8
British 8
soun@@ 8
Sm@@ 8
ould 8
night 8
mark 8
mor@@ 8
love 8
ded 8
vac@@ 8
tain 8
lum 8
pit@@ 8
aniel 8
cop@@ 8
kid 8
fav@@ 7
ỹ@@ 7
ö@@ 7
thic 7
Life 7
read 7
fl@@ 7
prof@@ 7
* 7
ỷ@@ 7
lary 7
ase 7
ability 7
down 7
rst 7
Project 7
cru@@ 7
ican 7
rom@@ 7
ball 7
search 7
dog 7
ld 7
end@@ 7
Steph@@ 7
Children 7
ank@@ 7
mad 7
les@@ 7
oid 7
K. 7
Gul@@ 7
got@@ 7
dar@@ 7
loud 7
Good 7
ậc 7
ograp@@ 7
asse@@ 7
ancy 7
iness 7
hot@@ 7
Fl@@ 7
card 7
anz@@ 7
igh@@ 7
abo@@ 7
wards 7
Ố@@ 7
tran@@ 7
too 7
hole 7
get 7
Peace 7
ầ 7
nets 7
bridge 7
law@@ 7
dom 7
rap@@ 7
ison 7
bee 7
vacc@@ 7
hydro@@ 7
tur@@ 7
wat@@ 7
jo@@ 7
cope 7
ority 7
board 7
logy 7
head@@ 7
int@@ 7
Love 7
Abra@@ 7
mani@@ 7
unch 7
cript 7
Gir@@ 7
round 7
ils 7
vers 7
stea@@ 7
book 7
staf@@ 7
phony 7
ỗ@@ 7
mes 7
code 7
Mand@@ 7
vis@@ 7
shows 7
film 7
Space 7
ander@@ 7
transi@@ 7
loy@@ 7
peri@@ 7
catch 7
Beij@@ 7
wind 7
loo@@ 7
crac@@ 7
space 6
ỗn 6
Ú@@ 6
International 6
dom@@ 6
mouth 6
vil 6
Gulf 6
gy 6
ẳ@@ 6
list 6
tel@@ 6
ggs 6
nor@@ 6
q 6
cl@@ 6
Mus@@ 6
ology 6
cri@@ 6
ing@@ 6
post 6
same 6
him@@ 6
meth@@ 6
ids 6
ưở@@ 6
sal 6
hic@@ 6
Every@@ 6
where 6
Nel@@ 6
less@@ 6
China 6
ird 6
light 6
United 6
cles 6
her@@ 6
ank 6
ural 6
miles 6
Ạ@@ 6
bel 6
ware 6
ared 6
fo@@ 6
oran 6
Rich@@ 6
ush 6
inst@@ 6
Now 6
sels 6
elling 6
Is 6
fri@@ 6
Gener@@ 6
trop@@ 6
Ale@@ 6
party 6
name 6
ily 6
lege 6
d-@@ 6
rec@@ 6
sage 6
apo@@ 6
cip@@ 6
bur@@ 6
ears 6
fat 6
shing 6
craft 6
media 6
was@@ 6
fac@@ 6
dan@@ 6
Ara@@ 6
pan@@ 6
hos@@ 6
aly@@ 6
ction 6
ment 6
Cali@@ 6
magi@@ 6
foun@@ 6
Cen@@ 6
tain@@ 6
gli@@ 6
MR@@ 6
dal 6
pre@@ 6
Ủ@@ 6
lier 6
desk 6
ales 6
zone 6
AID@@ 6
thro@@ 6
sons 6
live 6
Ì 6
ssion 6
if 6
stitu@@ 6
sco 6
stock 6
friend 6
gar 5
gate 5
sum 5
He 5
huy@@ 5
\ 5
genes 5
aci@@ 5
iPh@@ 5
Oc@@ 5
tual 5
tiệ@@ 5
stern 5
bot@@ 5
ous 5
mạ@@ 5
pres@@ 5
hon@@ 5
hall 5
Ế@@ 5
sig@@ 5
For 5
© 5
Ậ@@ 5
¾ 5
ector 5
kinson 5
flying 5
tiz@@ 5
down@@ 5
Your 5
alle@@ 5
Satur@@ 5
who@@ 5
pic@@ 5
ashi@@ 5
vy 5
dioxide 5
zen 5
projec@@ 5
sw@@ 5
Kev@@ 5
ked 5
War 5
Can 5
hen@@ 5
ü@@ 5
Global 5
tomorrow 5
smart@@ 5
ells 5
play 5
ies 5
urch 5
Ắ@@ 5
sign 5
analo@@ 5
face 5
tocin 5
ards 5
mas@@ 5
Squ@@ 5
icks 5
Today 5
nel 5
mem@@ 5
Un@@ 5
ect 5
duc@@ 5
dance 5
gener@@ 5
date 5
eff@@ 5
quan@@ 5
21@@ 5
but 5
cial 5
grams 5
IT 5
me-@@ 5
dish 5
saw 5
mor 5
cure 5
elec@@ 5
amo@@ 5
tar@@ 5
wel@@ 5
ols 5
ema@@ 5
sted 5
â 5
ø@@ 5
life 5
bli@@ 5
changing 5
Đ 5
cul@@ 5
like 5
ink@@ 5
vel 5
head 5
pet 5
Nig@@ 5
nity 5
Act 5
ners 5
de-@@ 5
.D. 5
Indu@@ 5
but@@ 5
pat@@ 5
lea@@ 5
inh@@ 5
ple 5
cool 5
ator 5
sla@@ 5
hou@@ 5
scr@@ 5
sts 5
esia 5
ved 5
amine 5
cas@@ 5
tish 5
ghter 5
bread 5
home@@ 5
data 5
arm 5
oxy@@ 5
tori@@ 4
anks 4
ert 4
vin@@ 4
lap@@ 4
onies 4
wart 4
check 4
one@@ 4
อ@@ 4
emb@@ 4
Ù@@ 4
bet 4
Budd@@ 4
bone 4
mou@@ 4
ense 4
ser 4
cket 4
arian 4
 4
rand@@ 4
four 4
Ir@@ 4
aff@@ 4
dic 4
aled 4
acks 4
form 4
French 4
now 4
far@@ 4
pers 4
ild 4
gets 4
graph 4
boy 4
` 4
iệc 4
sky@@ 4
ving 4
sur@@ 4
Union 4
aware 4
ried 4
tter 4
comp@@ 4
week 4
hun@@ 4
sand@@ 4
key@@ 4
note 4
rest 4
June 4
free 4
hua 4
tiv@@ 4
ties 4
Whe@@ 4
Center 4
dot 4
not 4
tation 4
plan@@ 4
pher@@ 4
big 4
sol@@ 4
½ 4
mine 4
sic 4
bit@@ 4
Africa 4
network 4
Bible 4
wor@@ 4
ress 4
German 4
Ye@@ 4
Scho@@ 4
eg@@ 4
Paki@@ 4
mix@@ 4
phosph@@ 4
dra@@ 4
come 4
ệnh 4
boo@@ 4
city 4
ă 4
ere 4
spring 4
doc@@ 4
iệng 4
dou@@ 4
with 4
wing 4
itchen 4
sandwi@@ 4
trans@@ 4
Who 4
tom 4
cation 4
Ơ 4
peace 4
dio@@ 4
Tali@@ 4
nos@@ 4
spec@@ 4
using 4
its 4
Ê@@ 4
Thom@@ 4
PS 4
lywood 4
Oba@@ 4
back 4
press 4
ior 4
wil@@ 4
fal@@ 4
shar@@ 4
&apos;t 4
No 4
mers 4
cra@@ 4
rest@@ 4
Trans@@ 4
very 4
th-@@ 4
Dec@@ 4
stor@@ 4
ẫ 4
mol@@ 4
mile 4
mage 4
cloud 4
nar@@ 4
talk 4
ctic 4
hil@@ 4
fast 4
inten@@ 4
yp@@ 4
tee 4
videos 4
illu@@ 4
mag@@ 4
matic 4
nee@@ 4
Micha@@ 4
use 4
base 4
tis@@ 4
thri@@ 4
ening 4
wear 4
mous 4
ef@@ 3
slides 3
ves@@ 3
Palesti@@ 3
zing 3
Right 3
gre@@ 3
ler@@ 3
vest 3
ree@@ 3
Tim@@ 3
Ồ@@ 3
eah 3
tea 3
hot 3
-and-@@ 3
Christ@@ 3
church 3
sle@@ 3
shir@@ 3
Islam 3
pal@@ 3
got 3
grade 3
See 3
worthy 3
Whi@@ 3
And 3
think 3
pt 3
rough@@ 3
stu@@ 3
plu@@ 3
hard 3
jump@@ 3
dow@@ 3
right 3
Two 3
star 3
Chic@@ 3
green 3
less 3
cover 3
nam@@ 3
air 3
strict 3
band 3
fear 3
aper 3
shop 3
pos@@ 3
Here 3
beat 3
vil@@ 3
form@@ 3
thin@@ 3
child 3
Ã@@ 3
lings 3
quest 3
pop@@ 3
ben@@ 3
insi@@ 3
sees 3
Saharan 3
đ 3
agen 3
ping 3
foot@@ 3
this 3
reading 3
What 3
People 3
wis@@ 3
dit@@ 3
will 3
velo@@ 3
esterday 3
orrow 3
alone 3
ags 3
N. 3
hattan 3
clu@@ 3
Austr@@ 3
rus 3
pping 3
Nature 3
Yes 3
DV@@ 3
} 3
vision 3
Washi@@ 3
woo@@ 3
hand 3
wall 3
pred@@ 3
Ự 3
look 3
even@@ 3
poli@@ 3
kers 3
dogs 3
led 3
square 3
kind 3
rat 3
his 3
lat@@ 3
pen 3
dges 3
zoom 3
lies 3
hope 3
gs 3
nice 3
time 3
Ệ@@ 3
All 3
ừu 3
cour@@ 3
&apos;m 3
vere 3
tery 3
oty@@ 3
outh 3
anthro@@ 3
shot 3
Wom@@ 3
pot@@ 3
dn 3
win@@ 3
want 3
ign 3
̀ 3
English 3
app 3
£ 3
Tw@@ 3
eye@@ 3
fun@@ 3
throw 3
bab@@ 3
mis@@ 3
Health 3
mal 3
wh@@ 3
robot@@ 3
-up 3
weal@@ 3
break@@ 3
sides 3
Get 3
Twit@@ 3
pas@@ 3
ial 3
tea@@ 3
soft 3
mel@@ 3
r. 3
dit 3
on-@@ 3
rot@@ 3
del@@ 3
qua@@ 3
mental 3
From 3
electr@@ 3
laugh@@ 3
cess 3
little 3
lites 3
pes 3
ấ 3
uro@@ 3
asp@@ 3
multi-@@ 3
enom@@ 3
eci@@ 3
~ 3
tron@@ 3
Viet@@ 3
site 3
eld 3
tains 3
ade 3
py 3
hã@@ 3
rol@@ 3
she@@ 3
block 3
mir@@ 3
30s 3
far 3
ä@@ 3
done 3
sat 3
ghts 3
bru@@ 3
ception 3
illion 2
Wester@@ 2
rom 2
Not 2
ready 2
your 2
sit@@ 2
nership 2
Ờ@@ 2
ouse 2
wal@@ 2
ร 2
่ 2
ย 2
under@@ 2
project 2
state 2
motor 2
ẳm 2
agen@@ 2
camp@@ 2
 2
er-@@ 2
ring 2
mum 2
sad 2
text 2
mos@@ 2
stick 2
nging 2
stage 2
tim@@ 2
lands 2
Give 2
give 2
take 2
lif@@ 2
ted 2
around 2
tles 2
tionary 2
fish 2
million 2
bel@@ 2
talks 2
power 2
ậ 2
photo 2
graphy 2
Flori@@ 2
hur@@ 2
ơ-ron 2
free@@ 2
jump 2
fra@@ 2
port 2
score 2
ble@@ 2
Look 2
other 2
fy 2
gran@@ 2
tion@@ 2
stable 2
dder 2
which 2
not@@ 2
Lew@@ 2
range 2
osity 2
ric 2
nor 2
act 2
por@@ 2
ngdom 2
Afri@@ 2
ations 2
sci@@ 2
ined 2
bb@@ 2
Asia 2
of-@@ 2
radi@@ 2
&apos;ve 2
mod@@ 2
mid@@ 2
something 2
ddle 2
maker 2
vari@@ 2
cious 2
seri@@ 2
Muslim 2
OE@@ 2
yi@@ 2
imer 2
On 2
zation 2
operation 2
Ì@@ 2
Be 2
cian 2
musi@@ 2
bal 2
fied 2
works 2
des@@ 2
phos@@ 2
single 2
ced 2
ands 2
pid 2
mat@@ 2
later 2
gon@@ 2
Ug@@ 2
schizoph@@ 2
bad 2
that 2
Take 2
send 2
plat@@ 2
yor 2
erra 2
ship 2
Ea@@ 2
path 2
mber 2
ety 2
gge@@ 2
cratic 2
aten 2
gol@@ 2
pur@@ 2
chiế@@ 2
Ị@@ 2
plastic 2
cortex 2
Mex@@ 2
lunch 2
fru@@ 2
spi@@ 2
shopping 2
test 2
toi@@ 2
mul@@ 2
itable 2
pedia 2
Gand@@ 2
Sing@@ 2
mit@@ 2
atu@@ 2
leg@@ 2
doub@@ 2
le-@@ 2
many 2
Ử 2
Ầ@@ 2
Ó 2
Ể@@ 2
bing 2
lines 2
pants 2
80s 2
bow 2
high-@@ 2
rer 2
jects 2
pool 2
osaurs 2
ause 2
great 2
ned 2
model 2
real 2
stop@@ 2
NA 2
proteins 2
mes@@ 2
ef 2
coun@@ 2
work 2
cir@@ 2
scre@@ 2
baby 2
fellow 2
ories 2
́ 2
sou@@ 2
did 2
tle@@ 2
walk 2
cap@@ 2
dolph@@ 2
empo@@ 2
addi@@ 2
Ố 2
gest 2
jec@@ 2
glass 2
tional 2
fed 2
plane 2
tap@@ 2
trum 2
thern 2
conveni@@ 2
Tanz@@ 2
lers 2
sen@@ 2
gun@@ 2
Glob@@ 2
ads 2
cur@@ 2
With 2
ends 2
smoke 2
table 2
mas 2
Mr. 2
tropy 2
artic@@ 2
Indon@@ 2
Coca-@@ 2
gin@@ 2
mom 2
into 2
É@@ 2
achi@@ 2
long@@ 2
bili@@ 2
France 2
Aristot@@ 2
lation 2
land@@ 2
Arthu@@ 2
gir@@ 2
dis@@ 2
developing 2
easy 2
architecture 2
active 2
Califor@@ 2
Indian 2
rants 2
sun 2
good 2
digital 2
health 2
people 2
just 2
care 2
trau@@ 2
cienti@@ 2
fic 2
vement 2
² 2
main 2
lesc@@ 2
slo@@ 2
Shakespe@@ 2
whe@@ 2
tainment 2
sea 2
ly-@@ 2
esome 2
ets 2
U.N. 2
Lon@@ 2
hand@@ 2
mbers 2
rami@@ 2
dition 2
Ama@@ 2
meet 2
ees 2
trip 2
Revolution 2
flower 2
Kore@@ 2
inter@@ 2
Let 2
blue 2
eap 2
omy 2
ins@@ 2
urban 2
phil@@ 2
acific 2
sis 2
vor@@ 2
Have 2
echno@@ 2
logi@@ 2
woman 2
U.S. 2
syn@@ 2
away 2
How 2
broken 2
some 2
Just 2
shine 2
sli@@ 2
dec@@ 2
hydrogen 2
tury 2
inner 2
colate 2
sym@@ 2
user 2
add 2
atten@@ 2
ings 2
`@@ 2
{ 2
Fren@@ 2
zes 2
another 2
bul@@ 2
yers 2
species 2
fears 2
thcare 2
dat@@ 2
they 2
cannot 2
thetic 2
known 2
sac@@ 2
four-@@ 2
mot@@ 2
edit@@ 2
once 2
ć 2
Ọ@@ 2
horse 2
battery 2
gry 2
invite 2
impact 2
Next 2
ë 2
shape 2
cord 2
ñ@@ 1
anger 1
likes 1
ure 1
ight@@ 1
Western 1
bene@@ 1
Foun@@ 1
Muham@@ 1
use@@ 1
gency 1
bust 1
dence 1
This 1
force 1
books 1
.m. 1
hack@@ 1
cancer 1
freedom 1
fire 1
reason 1
higher 1
champ@@ 1
define 1
make 1
feel 1
proud 1
streets 1
heads 1
As 1
Every 1
nation 1
&apos;d 1
ute 1
kets 1
wave 1
organi@@ 1
rastruc@@ 1
blood 1
cience 1
writer 1
drive 1
tax 1
If 1
ching 1
Â 1
ically 1
chron@@ 1
icity 1
your@@ 1
happ@@ 1
soci@@ 1
went 1
spo@@ 1
mony 1
Again 1
ener@@ 1
visit 1
tural 1
tons 1
kid@@ 1
wings 1
Clin@@ 1
epi@@ 1
heimer 1
osoph@@ 1
ousness 1
symbo@@ 1
wire@@ 1
kilometers 1
rise 1
child@@ 1
dig@@ 1
Christmas 1
milli@@ 1
exp@@ 1
stro@@ 1
Egypt 1
ouri@@ 1
atus 1
stars 1
hea@@ 1
core 1
Imag@@ 1
cell 1
evolution 1
€ 1
resi@@ 1
ght 1
fly 1
Ầ 1
omic 1
pment 1
yesterday 1
ining 1
going 1
fee@@ 1
vot@@ 1
wire 1
sector 1
back@@ 1
see@@ 1
Russia 1
stru@@ 1
ments 1
re-@@ 1
samp@@ 1
burning 1
cave 1
Tasmani@@ 1
ask 1
tting 1
chic@@ 1
Amer@@ 1
stra@@ 1
bomb 1
Very 1
Some@@ 1
ẵ 1
ited 1
exi@@ 1
cake 1
ado@@ 1
anced 1
echnology 1
mam@@ 1
speak 1
Ob@@ 1
Ụ 1
Ữ 1
rev@@ 1
techno@@ 1
tech@@ 1
ẽn 1
fol@@ 1
lead 1
Britain 1
wife 1
words 1
lady 1
double 1
ckets 1
gri@@ 1
chee@@ 1
ghten@@ 1
ating 1
arts 1
fil@@ 1
cast 1
change 1
verse 1
olum@@ 1
posi@@ 1
kly 1
songs 1
pass@@ 1
polar 1
multi@@ 1
bird 1
eye 1
wed 1
Also 1
tly 1
also 1
wom@@ 1
Ỵ 1
Ĩ 1
vable 1
last 1
tate 1
pass 1
ounds 1
put 1
Í 1
fr@@ 1
inf@@ 1
bubble 1
five 1
ents 1
Brook@@ 1
stom@@ 1
aid 1
hair 1
track 1
navi@@ 1
assi@@ 1
mics 1
duced 1
ï@@ 1
post-@@ 1
orches@@ 1
isting 1
vice 1
world@@ 1
left 1
about 1
fit 1
eleph@@ 1
gain 1
food 1
Only 1
fas@@ 1
shoot 1
Arabic 1
ought 1
sleep@@ 1
eating 1
phones 1
public 1
eyes 1
compos@@ 1
ges 1
ative 1
inst 1
liber@@ 1
ched 1
oned 1
logical 1
oling 1
could 1
designed 1
specifically 1
rema@@ 1
cle 1
icy@@ 1
event 1
source 1
antic 1
born 1
rem@@ 1
tape 1
sco@@ 1
astro@@ 1
prote@@ 1
section 1
tered 1
indu@@ 1
Islamic 1
person 1
Ẻ@@ 1
tell 1
over@@ 1
drone 1
mothers 1
one-@@ 1
thes 1
Girl 1
sec@@ 1
conti@@ 1
stric@@ 1
cep@@ 1
ual 1
urs 1
bom@@ 1
-like 1
cut 1
Zeal@@ 1
lite 1
soon 1
Institute 1
sibi@@ 1
gla@@ 1
ā@@ 1
® 1
lab@@ 1
skin 1
incredi@@ 1
movi@@ 1
esn 1
European 1
Secon@@ 1
vege@@ 1
dir@@ 1
We 1
cil 1
ums 1
sub@@ 1
meter 1
hypo@@ 1
perf@@ 1
fin@@ 1
scale 1
hell 1
pul@@ 1
abor@@ 1
atory 1
projects 1
billion 1
Os 1
case 1
mur@@ 1
under 1
hori@@ 1
sat@@ 1
Then 1
says 1
know 1
yet 1
lob@@ 1
sor@@ 1
ries 1
page 1
wers 1
Could 1
heart 1
medium 1
invol@@ 1
early 1
affected 1
illness 1
worldwide 1
nations 1
half 1
receive 1
appropriate 1
countries 1
close 1
percent 1
treated 1
because 1
psychi@@ 1
such 1
short 1
supply 1
highly 1
promis@@ 1
approach 1
training 1
members 1
communities 1
interven@@ 1
wering 1
ordinary 1
others 1
power@@ 1
by-@@ 1
ours 1
fs 1
ED@@ 1
20th 1
ency 1
irs 1
tac@@ 1
open@@ 1
Of 1
chop@@ 1
acter@@ 1
formed 1
design 1
toler@@ 1
dep@@ 1
Antar@@ 1
giving 1
high@@ 1
market 1
due 1
Bei@@ 1
gaz@@ 1
ign@@ 1
Audience 1
clo@@ 1
ẳ 1
Japan@@ 1
sum@@ 1
staff 1
tings 1
xes 1
anding 1
legi@@ 1
Arg@@ 1
sub-@@ 1
dden 1
non@@ 1
ints 1
chain 1
tracking 1
hang@@ 1
graph@@ 1
grap@@ 1
she 1
Face@@ 1
Ể 1
Ớ@@ 1
rhy@@ 1
inal 1
ism 1
her 1
dạ@@ 1
zler 1
concer@@ 1
religi@@ 1
Singap@@ 1
pel@@ 1
demo@@ 1
Other 1
sions 1
esti@@ 1
yed 1
auti@@ 1
tize 1
soul 1
venue 1
skill 1
yard 1
lars 1
asy 1
list@@ 1
ve-@@ 1
birth 1
lower 1
stries 1
tals 1
para@@ 1
pati@@ 1
pay@@ 1
deep@@ 1
six 1
match 1
vity 1
algorithms 1
fur@@ 1
dang@@ 1
forest 1
seed 1
arch@@ 1
Montan@@ 1
thin 1
mirac@@ 1
super@@ 1
season 1
windows 1
wish 1
alleng@@ 1
better 1
tral 1
pic 1
First 1
new@@ 1
feed 1
named 1
iled 1
alist 1
has 1
stories 1
corruption 1
organized 1
crime 1
without 1
reve@@ 1
aling 1
identity 1
from 1
investi@@ 1
demonstr@@ 1
importance 1
facing 1
justice 1
sed 1
sharing 1
tun@@ 1
Think 1
atta@@ 1
dation 1
ade@@ 1
lã@@ 1
beg@@ 1
robo@@ 1
wild 1
Ẻ 1
speaker 1
fine 1
batt@@ 1
ecture 1
seum 1
break 1
magne@@ 1
to-@@ 1
tical 1
cre@@ 1
athle@@ 1
deli@@ 1
vol@@ 1
layer 1
ｃ 1
ective 1
Ứ 1
era@@ 1
Braz@@ 1
died 1
energy 1
ssic 1
swe@@ 1
spe@@ 1
lights 1
keys 1
lear 1
ror 1
ases 1
offi@@ 1
dru@@ 1
memb@@ 1
Ť 1
ques@@ 1
meters 1
domin@@ 1
tele@@ 1
presence 1
ghting 1
Ổ 1
gged 1
mption 1
Syl@@ 1
emo@@ 1
influ@@ 1
lease 1
type 1
fall 1
create 1
things 1
might 1
build 1
understand 1
vaccines 1
Micros@@ 1
wide@@ 1
teles@@ 1
Americans 1
abilities 1
hood 1
They 1
used 1
dly 1
artist 1
breathe 1
tum 1
hatt@@ 1
ignore 1
acity 1
voice 1
preci@@ 1
ize 1
hyper@@ 1
py@@ 1
́ 1
place 1
sm 1
geni@@ 1
lit 1
som@@ 1
life@@ 1
you@@ 1
often 1
depend 1
describes 1
remarkable 1
relationship 1
illustr@@ 1
depen@@ 1
dency 1
ty-@@ 1
alization 1
tradi@@ 1
hide 1
viewer 1
best 1
ways 1
ridi@@ 1
sing@@ 1
Ỉ@@ 1
These 1
voc@@ 1
hear@@ 1
hotel 1
education 1
enter@@ 1
electro@@ 1
electric 1
execu@@ 1
mini@@ 1
squ@@ 1
ø 1
dless 1
cept 1
tative 1
accept 1
maybe 1
bacter@@ 1
ages 1
moon 1
sses 1
fre@@ 1
edu@@ 1
duction 1
thank 1
ecu@@ 1
chec@@ 1
rupt 1
fiel@@ 1
Ỗ@@ 1
honest@@ 1
authenti@@ 1
integr@@ 1
Ở@@ 1
while 1
random@@ 1
correct 1
there 1
three 1
plan 1
buil@@ 1
determin@@ 1
drug 1
nical 1
prin@@ 1
only 1
area 1
desi@@ 1
incenti@@ 1
notice 1
dding 1
play@@ 1
uys 1
fresh 1
Č@@ 1
piece 1
dea@@ 1
oxygen 1
enh@@ 1
confi@@ 1
hard@@ 1
massive 1
open 1
schi@@ 1
Imagine 1
happy 1
hour 1
