, 156165
. 132868
the 103083
to 65901
of 60281
and 56603
a 55468
that 46612
I 43656
in 39590
is 34009
you 33032
it 31524
&apos;s 29554
we 28529
And 23335
this 21399
&quot; 18909
was 15982
for 15410
are 14714
on 14327
have 14218
they 13834
with 13278
-- 12581
can 12324
? 11882
So 11722
&apos;t 11692
what 11481
about 11112
be 10576
at 10290
as 10138
all 9625
not 9451
do 9228
my 8936
an 8760
&apos;re 8653
there 8636
people 8565
one 8515
It 8397
like 8289
from 8203
so 7790
or 7438
but 7326
our 7191
: 7189
just 6929
me 6844
The 6667
We 6642
But 6585
these 6485
if 6435
very 6378
out 6355
them 6142
by 6134
more 5907
up 5884
when 5876
going 5806
know 5703
because 5633
had 5472
he 5447
your 5379
how 5351
us 5335
their 5294
think 5289
who 5288
see 5239
were 5227
which 5154
would 5085
really 5081
get 4941
&apos;ve 4639
&apos;m 4604
time 4567
way 4528
world 4487
re@@ 4461
here 4420
You 4409
then 4381
This 4358
has 4252
some 4227
actually 4204
into 4152
don 4106
years 3990
Now 3895
things 3876
will 3867
now 3861
other 3851
where 3721
want 3718
They 3703
could 3637
go 3626
make 3617
been 3477
-@@ 3443
said 3356
than 3208
something 3200
no 3134
much 3120
two 3056
right 3036
first 3028
thing 2984
those 2983
also 2953
ing 2894
life 2864
work 2825
back 2792
look 2788
little 2771
In 2767
got 2766
say 2766
she 2764
his 2726
That 2709
in@@ 2679
need 2655
only 2635
over 2626
most 2621
What 2594
even 2564
S@@ 2549
ed 2509
s@@ 2484
many 2482
take 2474
lot 2452
; 2445
new 2408
did 2407
es 2402
able 2393
her 2341
around 2337
good 2297
kind 2293
different 2285
a@@ 2276
There 2253
b@@ 2247
day 2243
p@@ 2242
through 2192
ting 2172
al 2154
down 2147
t@@ 2115
use 2095
d@@ 2082
come 2082
&apos;ll 2075
li@@ 2046
un@@ 2036
same 2030
every 2016
Well 2007
being 2007
He 1982
e@@ 1961
If 1941
s 1922
di@@ 1918
doing 1910
its 1902
en@@ 1891
ti@@ 1850
put 1849
any 1839
ted 1837
called 1825
o@@ 1792
g@@ 1790
ate 1780
de@@ 1777
i@@ 1776
percent 1774
made 1763
talk 1759
three 1756
&apos;d 1753
why 1750
er 1726
ri@@ 1701
tell 1658
year 1656
ated 1651
A@@ 1637
well 1635
own 1633
change 1612
fact 1610
e 1607
find 1604
t 1598
today 1583
didn 1569
ts 1556
let 1552
y@@ 1551
idea 1541
brain 1540
C@@ 1510
human 1506
started 1506
Thank 1494
should 1490
great 1480
went 1474
last 1468
m@@ 1467
f@@ 1466
end 1458
big 1453
after 1452
l@@ 1451
ers 1447
k@@ 1444
ly 1443
important 1438
ar@@ 1435
thought 1434
before 1432
M@@ 1423
might 1416
give 1413
A 1411
course 1406
story 1403
tr@@ 1400
u@@ 1398
problem 1397
better 1378
still 1375
an@@ 1373
P@@ 1369
off 1367
never 1359
y 1354
part 1352
bit 1342
show 1334
r@@ 1329
p 1323
each 1318
came 1315
ation 1313
or@@ 1312
together 1308
When 1302
ds 1300
less 1300
&apos; 1297
st@@ 1291
next 1287
lo@@ 1278
another 1276
B@@ 1276
start 1275
place 1272
system 1267
between 1256
ago 1254
con@@ 1252
mi@@ 1247
him 1242
few 1237
man 1236
o 1235
does 1231
used 1226
al@@ 1219
love 1214
T@@ 1212
How 1211
age 1203
again 1198
too 1197
question 1194
data 1183
as@@ 1182
red 1172
found 1170
D@@ 1170
ever 1169
si@@ 1167
E@@ 1166
mean 1164
women 1163
try 1160
w@@ 1150
ch@@ 1149
example 1149
c@@ 1139
co@@ 1135
done 1130
le 1129
live 1128
water 1123
Because 1120
F@@ 1119
ding 1119
se@@ 1115
understand 1114
long 1114
it@@ 1113
sh@@ 1112
looking 1110
tions 1105
point 1105
wanted 1104
doesn 1100
children 1100
R@@ 1099
technology 1092
ex@@ 1088
real 1087
ro@@ 1085
school 1077
be@@ 1077
m 1074
se 1072
er@@ 1072
always 1069
believe 1069
tion 1066
call 1065
el@@ 1064
working 1058
money 1051
person 1050
am 1038
st 1032
k 1032
away 1031
L@@ 1030
ded 1029
four 1026
th@@ 1024
vi@@ 1024
sort 1023
h@@ 1021
la@@ 1021
dis@@ 1019
v@@ 1019
ous 1015
may 1014
10 1013
at@@ 1010
help 1009
le@@ 1008
whole 1008
create 1004
H@@ 1000
information 997
sp@@ 995
ter 995
feel 993
kids 993
trying 989
to@@ 986
ment 985
i 984
old 982
light 978
country 978
using 971
power 966
N@@ 961
O@@ 960
means 955
food 946
n@@ 944
My 944
body 943
million 936
side 936
ab@@ 934
pro@@ 929
become 927
home 924
on@@ 921
maybe 920
thinking 917
ni@@ 915
led 912
took 911
ac@@ 903
ad@@ 903
ve 901
everything 899
ling 895
space 895
One 891
five 887
room 887
says 887
ent 885
future 883
quite 883
king 877
bi@@ 877
! 877
making 875
de 874
comes 868
social 866
os@@ 865
best 864
number 864
les 863
enough 862
second 860
K@@ 859
getting 856
lives 855
small 851
g 847
G@@ 846
Why 844
She 842
su@@ 841
design 841
energy 838
These 835
sense 830
ways 829
men 828
times 825
ask 822
op@@ 821
I@@ 818
cu@@ 817
ma@@ 812
left 810
ap@@ 809
happened 808
ant 805
countries 804
me@@ 804
probably 802
es@@ 798
d 797
makes 796
without 795
case 793
talking 792
set 788
told 787
dollars 785
bo@@ 785
Let 782
science 779
build 777
experience 774
for@@ 774
learn 767
cells 766
fi@@ 766
pretty 766
pe@@ 764
l 763
tic 763
moment 762
while 760
W@@ 757
ance 755
interesting 755
such 754
across 754
gu@@ 753
happen 752
ks 752
simple 749
saw 747
ver@@ 747
pre@@ 746
ves 746
city 744
For 743
om@@ 741
bu@@ 738
als 738
building 738
living 737
der 736
pi@@ 734
inter@@ 733
ty 733
asked 733
coming 730
ity 729
pri@@ 727
book 727
half 725
Here 725
ta@@ 723
hand 721
stuff 720
hard 718
family 717
n 716
qu@@ 716
anything 715
else 714
inside 713
mu@@ 713
happens 709
ir@@ 709
sure 709
goes 708
form 708
au@@ 708
j@@ 708
&#91; 704
&#93; 704
ally 702
process 701
ag@@ 698
later 698
As 696
reason 696
seen 695
il@@ 694
care 694
car@@ 693
days 690
having 689
z@@ 687
am@@ 687
ability 687
No 686
ans 686
20 684
yet 683
problems 683
ge@@ 679
per@@ 678
top 674
ra@@ 674
music 674
ne@@ 673
wrong 670
business 669
health 668
single 666
play 662
ch 661
words 660
ce 660
x 659
someone 659
ec@@ 659
ol@@ 659
myself 658
mind 657
looked 655
bad 655
ter@@ 653
young 653
high 652
saying 650
often 648
move 648
ins 648
project 646
mo@@ 645
th 644
computer 644
ca@@ 644
within 643
far 642
ideas 640
art 638
po@@ 637
All 637
ses 637
whether 636
possible 635
billion 635
ine 634
ph@@ 633
picture 633
public 631
child 623
line 622
nothing 622
language 622
once 622
community 621
New 621
answer 621
gets 620
true 620
ations 619
both 616
global 616
Africa 616
control 615
matter 615
video 615
ic 614
car 613
tu@@ 613
te 613
U@@ 610
keep 608
ke 607
almost 605
read 605
imagine 604
face 604
ot@@ 601
tive 599
hope 599
works 599
du@@ 598
mar@@ 598
over@@ 598
heard 596
is@@ 594
pa@@ 594
h 594
ones 594
son 593
no@@ 592
built 592
basically 592
ng@@ 591
dy 591
min@@ 590
man@@ 588
ness 588
com@@ 587
ates 586
trans@@ 585
history 584
looks 583
group 581
stories 581
piece 581
word 581
already 580
decided 580
en 579
ating 579
night 578
job 578
guy 576
remember 573
though 573
research 572
Earth 572
bring 571
&amp; 570
ha@@ 570
amazing 570
ru@@ 570
30 569
J@@ 569
land 569
taking 567
six 567
res 566
United 565
per 563
Okay 562
sa@@ 561
couple 560
beautiful 559
b 559
ps 558
wasn 558
order 557
months 557
cr@@ 557
ments 556
tri@@ 555
education 554
gi@@ 552
ors 551
under 550
minutes 549
friends 548
government 548
became 547
open 547
sion 546
share 546
until 545
50 545
est 545
run 544
heart 544
woman 544
hi@@ 542
head 542
sub@@ 541
society 540
sti@@ 540
universe 540
nature 538
everybody 538
im@@ 537
imp@@ 537
learned 535
so@@ 535
ons 534
tra@@ 534
themselves 533
re 532
ourselves 532
created 532
mon@@ 532
turn 529
ful 528
exactly 528
States 526
Internet 525
TED 524
China 523
huge 522
the@@ 521
sts 520
completely 518
lu@@ 517
— 517
places 516
study 515
happening 515
cancer 513
des 512
knew 512
sing 512
ms 511
front 511
planet 509
level 509
hours 509
questions 508
par@@ 506
state 505
somebody 505
hear 503
isn 500
kinds 500
itself 499
environment 498
shows 497
stop 497
ci@@ 497
model 496
difference 495
American 494
against 493
name 493
... 493
der@@ 492
har@@ 491
everyone 490
house 490
ur@@ 487
worked 487
game 487
wi@@ 486
Then 484
others 483
ties 483
V@@ 482
past 482
since 482
students 479
gave 477
sometimes 475
ving 474
company 474
ence 474
war 473
view 472
sound 471
entire 469
rather 469
d-@@ 469
100 468
must 468
ator 468
India 468
mother 467
ho@@ 467
won 467
ary 467
table 466
changed 465
Oh 465
couldn 464
thousands 463
air 463
do@@ 463
large 463
mp@@ 462
turns 462
news 462
med 461
particular 461
den@@ 460
ches 459
Ma@@ 459
ten@@ 459
based 459
Re@@ 458
ws 457
sta@@ 457
America 457
disease 457
fe@@ 456
ice 455
outside 453
figure 453
powerful 452
mb@@ 452
early 452
learning 451
sho@@ 451
happy 451
century 450
takes 449
culture 449
during 449
population 448
x@@ 446
God 446
gra@@ 445
pos@@ 445
ls 443
systems 443
free 442
na@@ 442
ou@@ 441
tation 441
ze 438
species 438
spend 438
pu@@ 437
instead 437
key 436
test 435
third 435
et 435
machine 434
guys 434
least 434
lots 431
yourself 430
he@@ 430
natural 430
.@@ 430
U.S. 429
Or 427
phone 427
animals 427
cell 426
size 425
realized 425
economic 425
oil 423
w 422
self-@@ 422
along 422
easy 422
At 422
given 422
dec@@ 421
ster 420
um 420
team 419
ce@@ 419
c 419
ats 419
0s 418
needed 417
behind 416
In@@ 416
col@@ 416
dly 415
sive 414
grow 414
ea@@ 414
walk 414
ngs 414
difficult 413
gen@@ 413
simply 413
da@@ 413
parents 412
needs 411
felt 410
Th@@ 409
image 409
father 406
finally 406
low 405
leave 405
certain 405
friend 404
companies 404
paper 403
lation 403
ked 403
close 403
men@@ 403
media 402
moving 402
under@@ 401
ry 399
sted 399
ul@@ 399
eyes 399
taken 398
ying 398
turned 398
ved 398
act 397
hu@@ 394
area 394
Al@@ 394
fu@@ 393
political 393
value 393
black 393
parts 393
zing 393
full 392
ming 392
ob@@ 392
ali@@ 390
rest 390
seeing 389
ve@@ 389
inf@@ 389
4@@ 388
People 388
wing 388
war@@ 388
chi@@ 387
spent 387
ents 387
perhaps 387
te@@ 386
cannot 386
eat 385
cor@@ 384
15 384
local 383
stage 383
middle 382
bri@@ 382
hands 382
can@@ 381
ler 380
zed 380
ori@@ 378
ic@@ 377
Do 377
Y@@ 376
seven 376
ge 376
scale 375
amount 375
cost 375
growth 375
longer 374
knowledge 374
sed 374
quickly 374
cities 374
ously 374
began 373
wonderful 373
t-@@ 373
ning 373
ters 372
beginning 372
books 371
death 371
tly 370
1@@ 368
behavior 367
terms 367
speak 367
ga@@ 366
id 366
out@@ 366
7@@ 365
born 365
week 364
York 364
lost 364
eight 364
els 362
ba@@ 362
De@@ 362
Is 362
cre@@ 361
step 361
sh 361
field 360
ck 360
ground 360
write 359
known 359
enti@@ 359
To 358
we@@ 358
giving 358
common 357
ose 356
ching 355
la 355
met 355
ining 354
complex 354
ned 354
ver 354
ces 354
hold 354
images 353
tried 352
super@@ 351
fly 351
ari@@ 351
either 351
Our 350
em 350
Some 350
deal 350
Yes 350
solution 349
el 348
tional 347
str@@ 347
morning 347
die 347
nu@@ 346
ma 346
ser@@ 346
personal 345
action 345
average 344
up@@ 344
forward 344
ear@@ 343
market 343
ff@@ 343
weeks 342
pay 342
attention 342
sitting 341
reality 341
ined 341
fil@@ 340
sur@@ 340
solve 340
changes 340
growing 339
feeling 339
40 338
telling 338
wouldn 338
Su@@ 338
Ar@@ 338
ders 338
green 338
force 337
whatever 337
Yeah 337
DNA 336
gh@@ 336
opportunity 335
Mar@@ 335
developed 335
fear 334
interested 334
comp@@ 334
economy 334
brought 333
cal 333
ators 333
box 333
buy 333
gone 332
r 332
late 331
and@@ 331
cal@@ 330
lab 330
go@@ 330
Just 330
On 330
girl 330
ens 329
watch 328
physical 328
lan@@ 328
English 327
voice 327
6@@ 326
tools 326
seems 326
ies 325
ship 325
sions 325
animal 325
board 323
ality 323
writing 323
alone 323
ss 323
et@@ 323
poor 323
cri@@ 322
ta 322
An@@ 321
structure 321
realize 321
issue 321
individual 320
stand 320
ics 320
changing 320
ys 319
/ 319
creating 319
asking 319
stri@@ 319
film 318
ite 318
numbers 317
fla@@ 317
material 317
f 317
developing 317
wrote 316
3@@ 316
running 316
short 316
5@@ 316
produce 315
challenge 315
ring 315
scientists 314
playing 314
tically 314
incredible 313
understanding 312
access 312
fast 312
climate 311
Can 311
wa@@ 311
starting 311
humans 310
u 310
audience 309
lar 309
save 309
ju@@ 309
girls 309
fully 309
focus 309
mental 308
tw@@ 308
generation 307
fied 307
Chinese 307
bed 306
fun 306
millions 306
lin@@ 306
Right 306
2 306
3 304
knows 303
clear 303
bio@@ 302
literally 302
risk 302
Ch@@ 301
mer@@ 301
forms 301
rate 301
ner 299
blo@@ 299
anyone 299
product 299
ended 299
areas 298
Mo@@ 298
vers 298
prot@@ 298
seem 298
ven@@ 298
program 297
blue 297
fish 297
gives 297
innovation 296
online 296
normal 296
lt 295
clu@@ 295
dra@@ 294
ns 294
baby 294
aren 294
discovered 293
died 293
ngly 293
network 292
hundreds 291
patient 291
patients 291
thank 291
experiment 291
type 291
z 290
ill 290
vo@@ 289
By 289
result 289
br@@ 289
lic@@ 289
ev@@ 289
ines 288
showed 288
teach 288
cut 288
cars 288
ect 287
ther 287
tal 287
nice 287
cool 287
theory 287
rec@@ 287
cli@@ 287
8@@ 287
modern 287
tics 287
dead 287
sex 287
9@@ 286
ist 286
ker 286
od@@ 286
Not 285
feet 285
kid 285
white 284
OK 284
blood 283
pe 283
bottom 283
acy 282
eye 282
ad 282
tion@@ 281
especially 281
ther@@ 281
pictures 281
ani@@ 281
ism 280
ck@@ 280
allow 280
ki@@ 280
ard 279
movement 279
micro@@ 279
materials 279
ey 279
center 279
Di@@ 279
development 279
incredibly 278
potential 278
surface 278
success 278
games 278
teachers 277
ical 277
talked 277
connected 277
explain 277
support 277
relationship 277
impact 276
ber@@ 276
ged 276
industry 276
Con@@ 275
ects 274
1 274
present 274
tiny 273
tal@@ 273
wor@@ 273
ang@@ 273
ots 272
soon 272
World 272
meet 272
Me@@ 272
resources 271
involved 271
absolutely 271
ably 270
okay 270
chance 270
haven 270
hea@@ 270
ble 270
groups 269
cur@@ 269
ocean 269
tical 269
class 269
issues 269
law 268
pan@@ 268
eating 268
sounds 267
12 267
ball 267
yes 267
star@@ 267
begin 266
4 265
ently 265
air@@ 265
deep 265
ages 265
na 265
send 265
ke@@ 265
sleep 265
shape 264
available 264
os 264
happiness 264
schools 263
Europe 263
Google 263
beyond 263
sen@@ 262
message 262
y-@@ 262
color 262
technologies 262
gener@@ 262
designed 262
democracy 261
journey 261
position 261
sal@@ 261
major 261
C 260
worth 260
25 260
situation 260
hit 260
robot 260
flo@@ 259
South 259
hour 259
lose 259
ran@@ 259
device 259
tru@@ 258
choice 258
road 258
rules 258
ton 258
lived 258
recently 257
violence 257
hundred 257
ths 256
vision 256
truth 256
projects 256
cause 256
cy@@ 256
quality 255
sters 255
street 255
cra@@ 255
wish 255
walking 255
Where 254
id@@ 254
ine@@ 254
shed 254
9 254
door 254
spread 254
miles 254
map 254
7 254
pic@@ 253
tives 253
onto 253
ative 253
individuals 253
ee@@ 252
national 252
my@@ 252
ready 252
tells 252
becomes 252
likely 252
minute 251
kes 251
bar@@ 251
stay 251
predic@@ 251
approach 251
strong 251
putting 251
digital 251
memory 251
office 251
creative 250
guess 250
ow@@ 250
break 250
2@@ 250
-year-old 249
Be@@ 249
pas@@ 249
bigger 249
month 249
So@@ 248
fight 248
bur@@ 248
carbon 248
dark 247
cen@@ 247
pl@@ 247
First 247
Maybe 247
sk@@ 247
bodies 247
similar 246
sto@@ 246
After 246
ited 246
boy 246
list 246
reasons 246
tend 246
il 246
exp@@ 246
effect 245
ched 245
coun@@ 245
Every 244
fer@@ 244
medical 244
inten@@ 244
teacher 243
code 243
meaning 243
ear 243
ste@@ 243
evidence 243
Com@@ 243
Of 243
results 243
smart 243
TED@@ 243
fall 243
ren@@ 242
pain 242
special 242
ately 241
6 241
towards 241
cru@@ 241
everywhere 241
ered 241
e-@@ 241
favorite 240
crazy 240
ants 240
gr@@ 240
drive 239
dic@@ 239
char@@ 239
scientific 238
Li@@ 238
ut 238
taught 238
starts 238
develop 238
mission 238
basic 238
lines 237
sel@@ 237
mine 237
hor@@ 237
software 237
sent 237
certainly 237
ess 237
West 237
income 237
computers 236
measure 236
gt 236
mat@@ 236
sea 236
fa@@ 236
biggest 236
With 236
uni@@ 236
examples 236
lea@@ 236
gar@@ 236
rich 236
moral 235
serve 235
Co@@ 235
song 235
ay 235
bul@@ 235
leaders 235
cop@@ 234
interest 234
perfect 234
Z@@ 234
moved 233
ig@@ 233
ory 233
zation 233
obviously 233
mer 233
sit 233
alized 232
back@@ 232
dream 232
che@@ 232
particularly 232
ture 232
Don 232
cer@@ 232
camera 232
drug 232
tle 231
dro@@ 231
fo@@ 231
showing 231
faster 231
non-@@ 230
safe 230
sm@@ 230
East 230
loved 230
sha@@ 230
ar 229
positive 229
communities 229
choose 228
waste 228
lar@@ 228
listen 228
fire 228
lead 228
Sh@@ 228
tor 227
cultural 227
ster@@ 227
plan 227
general 227
add 227
Ro@@ 227
response 227
indeed 226
high-@@ 226
pla@@ 226
Are 226
decisions 226
R 226
TV 226
row 225
region 225
student 225
ne 225
bal@@ 225
mp 225
minds 224
bs 224
follow 224
Hu@@ 224
60 224
ia 224
wait 224
totally 224
further 224
several 224
oo@@ 223
reach 223
town 223
source 223
tool 223
drugs 223
Even 223
brains 222
nine 222
18@@ 222
worse 222
5 222
watching 221
uses 221
19@@ 221
ences 221
dri@@ 221
cou@@ 220
B 220
ft 220
content 220
ency 220
La@@ 220
200 220
D 219
tic@@ 219
cap@@ 219
nobody 219
peace 219
cul@@ 218
ecting 218
ping 218
our@@ 218
wants 218
respon@@ 218
training 218
ack@@ 218
jobs 218
grew 217
ack 217
ut@@ 217
Car@@ 217
named 217
Look 217
shown 217
ban@@ 217
trust 217
largest 216
activity 216
ward 216
allowed 216
flu@@ 216
emer@@ 216
pur@@ 215
ell 215
cent 215
ley 215
screen 215
cat@@ 215
pros@@ 215
studies 214
meant 214
ically 214
dance 214
standing 214
wife 214
cks 214
math 214
kill 214
tes 214
ber 214
including 214
trees 214
continue 213
suddenly 213
anybody 213
Most 213
sses 213
ner@@ 213
objects 213
village 213
points 212
Who 212
expect 212
notice 212
specific 212
den 212
emp@@ 212
fine 212
sun 212
em@@ 211
cl@@ 211
hand@@ 211
one-@@ 211
products 211
squ@@ 211
buildings 211
traditional 210
crisis 210
version 210
eventually 210
movie 210
wel@@ 209
context 209
tho@@ 209
plant 209
dd@@ 209
among 209
lies 209
ges 209
ep@@ 209
Americans 209
raise 208
conditions 208
oun@@ 208
8 208
period 208
80 208
St@@ 208
truly 208
compassion 208
mes 208
expensive 208
finding 208
HIV 208
plants 208
lights 208
poverty 207
Po@@ 207
killed 207
tan@@ 207
demo@@ 207
sign 207
hospital 207
pen@@ 207
connect 207
revolution 207
pick 207
cro@@ 206
allows 206
fy 206
ess@@ 206
anymore 206
eri@@ 206
mass 206
oh 206
cases 206
anti@@ 206
sion@@ 206
win@@ 205
cover 205
dr@@ 205
conflict 205
extremely 205
solutions 205
conversation 205
wind 205
tors 205
models 204
Si@@ 204
wall 204
excited 204
tor@@ 204
rou@@ 204
David 204
bra@@ 204
politics 204
ven 203
provide 203
non@@ 203
stor@@ 203
alive 203
service 203
solar 203
artist 203
seconds 202
sorts 202
kept 202
far@@ 202
skin 202
bl@@ 202
sm 202
ners 201
iled 201
impro@@ 201
exciting 201
fin@@ 201
lower 201
Se@@ 201
search 201
Which 201
continu@@ 201
S 201
listening 201
din@@ 201
rise 201
engineering 201
skills 201
stic 200
extraordinary 200
Today 200
page 200
freedom 200
cing 200
deli@@ 200
ends 200
role 200
contr@@ 200
societies 200
machines 200
reading 199
dre@@ 199
successful 199
goal 199
cation 199
evolution 199
da 199
pattern 198
disp@@ 198
North 198
ick 198
publi@@ 198
Bo@@ 197
faces 197
wn 197
gre@@ 197
production 197
us@@ 197
hot 197
college 197
families 197
0,000 197
self 197
ssed 196
race 196
security 196
To@@ 196
familiar 196
cally 196
oper@@ 196
off@@ 196
Ra@@ 195
11 195
ir 195
series 195
Imagine 195
wards 195
Ju@@ 195
ging 195
wer 194
lity 194
grand@@ 194
her@@ 194
impossible 194
anywhere 194
neurons 194
refl@@ 194
effective 194
bunch 194
robots 194
pieces 193
ss@@ 193
ele@@ 193
higher 193
plan@@ 193
ort 193
hole 193
cking 193
written 192
vari@@ 192
weight 192
above 192
ghts 192
fore@@ 192
usually 192
s-@@ 192
types 192
win 192
famous 192
see@@ 192
magic 192
critical 191
mini@@ 191
ely 191
Nor@@ 191
main 191
est@@ 190
press 190
por@@ 190
gs 190
iling 190
somewhere 190
20@@ 190
ery 190
supposed 190
ene@@ 190
aware 190
o-@@ 190
ites 190
Bu@@ 190
doctors 190
pping 189
500 189
actual 189
larger 189
tex@@ 189
funny 189
recognize 189
upon 189
om 189
doctor 189
patterns 189
greater 188
ran 188
bro@@ 188
speed 188
talks 188
object 188
consider 188
University 188
connection 188
teaching 188
current 188
active 188
psycho@@ 188
treatment 188
becoming 188
organization 187
perspective 187
travel 187
Ex@@ 187
ash 187
site 187
199@@ 187
massive 186
sky 186
thousand 186
aging 186
Mi@@ 186
sell 186
Those 186
don@@ 186
rights 186
mic 185
le-@@ 185
Na@@ 185
store 185
multi@@ 185
somehow 185
ories 185
train 185
shing 185
G 185
visual 185
molecules 184
ane 184
inv@@ 184
mis@@ 184
legs 183
concept 183
Your 183
lim@@ 183
John 183
beauty 183
pul@@ 183
lab@@ 182
fra@@ 182
ils 182
fac@@ 182
shared 181
cher 181
human@@ 181
two-@@ 181
smaller 181
nal 181
financial 181
esti@@ 181
range 181
jo@@ 181
18 180
older 180
Western 180
healthy 180
African 180
pped 180
complicated 180
to-@@ 180
forest 179
explo@@ 179
increase 179
bacteria 179
spec@@ 179
stress 179
fundamental 179
costs 179
organizations 179
speci@@ 179
mom 179
sy@@ 179
babies 179
Je@@ 179
foot 178
Wi@@ 178
ray 178
Le@@ 178
levels 178
date 178
plastic 178
mor@@ 178
decades 178
cep@@ 178
humanity 178
website 178
progress 178
female 178
ill@@ 178
,000 177
dangerous 177
policy 177
beings 177
remarkable 177
dad 177
temp@@ 177
ef 177
ace 177
cian 177
forth 177
Afghanistan 177
ll 177
Pro@@ 177
essentially 177
cla@@ 177
app@@ 177
shot 176
ra 176
Ri@@ 176
ome@@ 176
ath 176
ny 176
genes 176
please 176
plu@@ 176
medi@@ 175
record 175
lands 175
protect 175
equ@@ 175
practice 175
immediately 174
path 174
fl@@ 174
ound 174
mobile 174
genetic 174
aci@@ 174
cros@@ 174
Wh@@ 174
throughout 174
surgery 174
simp@@ 174
tim@@ 173
wonder 173
biology 173
track 173
cos@@ 173
creativity 173
performance 173
dness 173
function 173
electricity 173
arm 172
pull 172
wit@@ 172
acting 172
surprising 172
speaking 172
evolved 172
0@@ 172
fantastic 172
mit@@ 172
Like 172
draw 172
police 172
related 172
ases 171
daughter 171
decision 171
architecture 171
ong 171
exist 171
touch 170
following 170
private 170
sustainable 170
citizens 170
treat 170
thern 170
gotten 170
television 170
zes 170
Fi@@ 170
ome 169
party 169
clearly 169
serious 169
bas@@ 169
waiting 169
cho@@ 169
earlier 169
tur@@ 169
ection 169
ering 169
physics 169
tures 169
Another 169
From 168
illi@@ 168
challenges 168
analy@@ 168
walked 168
understood 168
pit@@ 168
City 168
free@@ 168
ank 168
cold 168
services 168
soci@@ 168
ore 168
logists 168
lating 167
foun@@ 167
regu@@ 167
career 167
tro@@ 167
final 167
fer 167
international 167
rap@@ 167
circu@@ 166
emotional 166
pass 166
medicine 166
thetic 166
enter@@ 166
&apos;@@ 166
improve 166
sil@@ 166
helped 166
fit 166
unique 166
strange 166
assu@@ 166
gas 166
Ne@@ 165
pr@@ 165
prof@@ 165
environmental 165
focused 165
direction 165
price 165
E 164
military 164
ick@@ 164
whose 164
slightly 164
willing 164
invented 164
himself 164
ish 164
ky 164
cha@@ 164
val@@ 163
tain 163
acts 163
Tur@@ 163
complete 163
posed 163
cations 163
intelligence 163
obser@@ 163
choices 163
experiments 163
therefore 163
ple@@ 163
dep@@ 163
90 162
arti@@ 162
down@@ 162
birth 162
except 162
Two 162
ances 162
lit@@ 162
blind 162
subject 161
values 161
useful 161
decide 161
weren 161
sat 161
dying 161
motiv@@ 161
directly 161
oc@@ 161
recent 161
creates 161
ced 161
driving 161
birds 160
near 160
lo 160
Un@@ 160
tree 160
comfortable 159
nger 159
task 159
Mon@@ 159
yeah 159
Mu@@ 159
person@@ 159
networks 159
summer 159
clos@@ 159
obvious 159
gl@@ 159
complexity 159
meeting 158
mos@@ 158
ten 158
ands 158
syn@@ 158
Some@@ 158
re-@@ 158
flow 158
spending 158
ology 158
His 158
sharing 158
square 158
shi@@ 157
va@@ 157
dent 157
nation 157
inspired 157
Lu@@ 157
secret 157
sli@@ 157
$ 157
prison 157
stars 157
instance 157
nuclear 157
station 157
head@@ 156
London 156
ei@@ 156
actions 156
Facebook 156
popular 156
slide 156
chemical 156
boys 156
answers 156
mag@@ 156
temperature 156
chan@@ 155
dog 155
members 155
bits 155
fron@@ 155
paid 155
survive 155
coffee 155
event 155
ahead 155
virus 155
pes 155
differences 155
diversity 155
mber 154
decade 154
aw@@ 154
tivity 154
bom@@ 154
Ba@@ 154
capacity 154
ure 154
ide@@ 154
fol@@ 154
det@@ 154
slow 154
reti@@ 154
shares 153
clean 153
ate@@ 153
explore 153
Mc@@ 153
ars 153
speech 153
Par@@ 153
cel@@ 153
greatest 153
turning 153
ol 153
acked 152
artists 152
bes 152
ed@@ 152
round 152
glass 152
asks 152
Sa@@ 152
Middle 152
states 152
brings 152
trial 152
saving 152
Many 152
flying 151
meters 151
identity 151
held 151
spaces 151
rit@@ 151
central 151
apped 151
streets 151
fying 151
causes 151
diseases 151
offi@@ 151
various 151
fir@@ 151
published 151
stra@@ 151
highly 151
tici@@ 151
stream 150
purpose 150
passion 150
Ki@@ 150
Har@@ 150
terrible 150
afraid 150
nor@@ 150
noticed 150
phones 150
worst 150
male 150
13 149
forces 149
concer@@ 149
ears 149
dollar 149
etc 149
fri@@ 149
radio 149
War 149
liber@@ 149
grade 149
mal 149
produced 149
gri@@ 149
istic 149
foot@@ 149
0-@@ 149
communicate 149
ey@@ 149
regi@@ 149
fun@@ 149
hy@@ 149
preci@@ 149
gging 149
aff@@ 148
dence 148
forget 148
70 148
lying 148
14 148
T 148
term 148
ending 148
radi@@ 148
law@@ 148
scientist 148
ght@@ 147
logist 147
bel@@ 147
O 147
En@@ 147
Instead 147
passed 147
Have 147
knowing 147
standard 147
Dr. 147
bees 147
experiences 146
quar@@ 146
eth@@ 146
repe@@ 146
floor 146
lets 146
No@@ 146
twice 146
occu@@ 146
missing 146
initi@@ 146
necessary 146
work@@ 146
ards 146
bread 146
fle@@ 145
push 145
kers 145
spi@@ 145
photograph 145
trouble 145
amp 145
era 145
leadership 145
significant 145
bone 145
wea@@ 144
join 144
closer 144
stopped 144
Think 144
low-@@ 144
bla@@ 144
California 144
mostly 144
bringing 144
cked 144
of@@ 144
sides 144
aid 144
justice 144
sexual 144
10@@ 144
qui@@ 144
cour@@ 144
corruption 144
possibly 144
extra 144
Take 144
institutions 144
below 143
docu@@ 143
rev@@ 143
rep@@ 143
atch 143
drop 143
core 143
shel@@ 143
devices 143
Iraq 143
mates 143
inst@@ 143
basis 143
collabor@@ 143
M 143
scre@@ 142
bru@@ 142
pol@@ 142
are@@ 142
colleagues 142
stick 142
bor@@ 142
carry 142
set@@ 142
mot@@ 142
16 142
mal@@ 142
conference 142
adv@@ 142
original 142
bing 142
Col@@ 142
autism 142
molecule 141
communication 141
meter 141
gg@@ 141
bon@@ 141
pp@@ 141
rain 141
capit@@ 141
moments 141
opportunities 141
reduce 141
wat@@ 140
played 140
vote 140
trade 140
logical 140
ries 140
lack 140
dents 140
web 140
helping 139
text 139
st-@@ 139
Tr@@ 139
ty@@ 139
Chris 139
yst@@ 139
rac@@ 139
feels 139
hearing 139
197@@ 139
cial 139
L 139
traffic 139
def@@ 138
oth 138
rule 138
Gu@@ 138
structures 138
ought 138
ature 138
accoun@@ 138
supply 138
workers 138
programs 138
AIDS 138
effort 137
discu@@ 137
consciousness 137
nearly 137
quick 137
tively 137
lucky 137
opposite 137
ours 137
feed 137
glob@@ 137
ot 137
For@@ 137
zero 137
logy 137
invol@@ 137
shift 137
dar@@ 137
ght-@@ 137
suit 136
apart 136
leading 136
degrees 136
int 136
studying 136
rooms 136
cycle 136
vation 136
return 136
sand 136
emotions 135
rea@@ 135
Qu@@ 135
ambi@@ 135
lations 135
sou@@ 135
pressed 135
bought 135
straight 135
National 135
a-@@ 135
broken 135
tered 135
majority 135
vir@@ 135
wed 135
relationships 135
ana 135
suppor@@ 135
religion 135
K 135
importantly 134
l-@@ 134
husband 134
vement 134
ial 134
ble@@ 134
300 134
gate 134
ase 134
ction 134
fli@@ 134
urban 134
wear 134
by@@ 134
wood 134
responsible 134
1.@@ 134
gun 134
ected 133
ony 133
engage 133
crime 133
anyway 133
shes 133
conver@@ 133
represen@@ 133
gradu@@ 133
agree 133
read@@ 133
tissue 133
civil 133
Ph@@ 132
ills 132
irs 132
Great 132
Lo@@ 132
Actually 132
failure 132
benefits 132
thu@@ 132
Or@@ 132
dies 132
forever 132
end@@ 132
wr@@ 132
tar@@ 132
alization 132
interact 132
address 132
P 132
construc@@ 132
condition 132
mothers 132
zz@@ 132
colors 132
Indian 132
engine 132
although 131
facts 131
profit 131
prin@@ 131
apply 131
benefit 131
differently 131
ost 131
net 131
yer 131
transp@@ 131
alle@@ 131
ff 131
entirely 131
Hey 131
wisdom 131
laws 131
determin@@ 131
graph 131
easily 131
compu@@ 131
wers 130
3D 130
Per@@ 130
pers 130
lesson 130
brea@@ 130
acks 130
star 130
198@@ 130
nutri@@ 130
due 130
hom@@ 130
Bar@@ 130
hun@@ 130
imagination 130
Audience 130
ols 130
photo 130
stem 130
Ber@@ 130
ort@@ 129
hear@@ 129
edge 129
esting 129
wh@@ 129
events 129
educ@@ 129
Da@@ 129
achieve 129
atmosphere 128
enormous 128
dge 128
accep@@ 128
ancient 128
flu 128
matters 128
duc@@ 128
Bill 128
ore@@ 128
However 128
ace@@ 128
statistics 128
Ta@@ 128
worry 128
ama@@ 128
oxygen 128
cloud 128
bran@@ 127
vering 127
att@@ 127
British 127
U.K. 127
ened 127
Mr. 127
definition 127
describe 127
hal@@ 127
amp@@ 127
fix 127
raised 127
throw 127
smell 127
high@@ 127
believ@@ 127
dom@@ 127
ngu@@ 127
deeply 127
ssion 127
belief 127
demonstr@@ 126
vast 126
landscape 126
Bi@@ 126
load 126
check 126
classroom 126
reli@@ 126
suffering 126
emb@@ 126
para@@ 126
ssing 126
dreams 126
attack 126
foreign 126
prom@@ 126
2,000 126
supp@@ 126
xi@@ 126
mam@@ 126
tail 126
resi@@ 126
terri@@ 125
infrastructure 125
received 125
Japan 125
method 125
creation 125
ans@@ 125
note 125
leg@@ 125
French 125
fashion 125
governments 125
kin@@ 125
responsibility 125
pressure 125
random 125
limited 125
painting 125
total 125
finished 124
ai@@ 124
discover 124
fascinating 124
yed 124
ists 124
distance 124
heat 124
exten@@ 124
sis 124
tionally 124
fighting 124
argument 124
stu@@ 124
home@@ 124
effects 124
atory 124
balance 124
users 124
none 124
insi@@ 123
Au@@ 123
gene@@ 123
extreme 123
10,000 123
photos 123
mel@@ 123
Sometimes 123
interaction 123
sc@@ 123
fair 123
researchers 123
Vi@@ 123
afford 123
alism 123
alo@@ 123
yers 123
European 123
eu@@ 122
ink 122
ney 122
shoes 122
sector 122
thre@@ 122
identi@@ 122
que 122
visit 122
respond 122
ped 122
Once 122
ograp@@ 122
integr@@ 122
rol@@ 122
shouldn 122
unk 122
figured 122
sian 122
strategy 122
loss 122
aries 122
Fe@@ 122
gay 122
mate 121
Over 121
equal 121
despite 121
lie 121
verse 121
break@@ 121
in-@@ 121
seemed 121
rational 121
Again 121
compared 121
Everybody 121
houses 121
corner 121
deci@@ 121
covered 121
window 121
adults 121
biological 121
creatures 121
X@@ 121
moves 120
keeping 120
1,000 120
formed 120
markets 120
oss 120
beat 120
imag@@ 120
Brazil 120
vege@@ 120
grown 120
cer 120
24 120
kil@@ 120
voices 120
conduc@@ 120
aps 120
An 120
Big 120
married 120
gue 120
affect 120
park 120
well-@@ 120
auth@@ 120
tric 120
transform 120
GDP 120
offer 119
deliver 119
titude 119
collective 119
fuel 119
perfectly 119
dinner 119
Go 119
consi@@ 119
typical 119
email 119
holding 119
managed 119
stuck 119
respect 119
discovery 119
Wal@@ 119
vit@@ 119
capital 119
thi@@ 119
quote 119
gla@@ 119
ger 119
legal 119
alize 119
ems 119
protein 119
lic 119
bli@@ 119
rid 119
v 119
breast 119
17 119
contribu@@ 118
smo@@ 118
report 118
organic 118
pil@@ 118
Go@@ 118
olu@@ 118
not@@ 118
Did 118
tou@@ 118
mics 118
frequ@@ 118
calls 118
drawing 118
direc@@ 118
necessarily 118
conscious 118
bank 118
reali@@ 118
character 118
clo@@ 118
len@@ 118
ise 118
inci@@ 117
acu@@ 117
Would 117
physi@@ 117
capable 117
nic@@ 117
mas@@ 117
1,@@ 117
rock 117
industrial 117
sight 117
mountain 117
thinks 117
Asia 117
tremendous 117
thri@@ 117
disa@@ 117
farmers 117
ful@@ 117
account 117
Arab 117
nar@@ 116
possibility 116
argu@@ 116
ential 116
names 116
easier 116
ize 116
ast 116
filled 116
joy 116
fication 116
ach 116
sick 116
Is@@ 116
ian 116
dering 116
illustr@@ 116
Women 116
failed 116
fire@@ 116
vic@@ 116
heal@@ 116
ized 116
target 116
Pa@@ 116
leads 116
invisible 116
insects 116
sites 116
fairly 116
negative 115
nur@@ 115
lay 115
ket@@ 115
hate 115
pel@@ 115
vis@@ 115
tech 115
investment 115
experts 115
sy 115
versus 115
stone 115
letter 115
pat@@ 115
construction 115
H 115
15@@ 114
equipment 114
languages 114
profound 114
genome 114
billions 114
sudden 114
emotion 114
Iran 114
bot@@ 114
poli@@ 114
operate 114
helps 114
watched 114
childhood 114
notion 114
interven@@ 114
bridge 114
Ha@@ 114
desire 114
studied 114
digi@@ 114
giant 114
gic 114
flies 113
detail 113
od 113
mented 113
igh@@ 113
faci@@ 113
liked 113
gain 113
comm@@ 113
wearing 113
ash@@ 113
efficient 113
itable 113
conta@@ 113
wil@@ 113
shop 113
ior 113
everyday 113
resp@@ 113
leader 113
ased 113
indu@@ 113
ush 113
sun@@ 113
campaign 112
sec@@ 112
views 112
Ho@@ 112
Ja@@ 112
hidden 112
Israel 112
survi@@ 112
daily 112
Japanese 112
collect 112
cle@@ 112
steps 112
adap@@ 112
designer 112
nec@@ 112
di 112
cating 112
apping 112
invited 112
charge 112
comb@@ 112
rela@@ 112
planning 112
mouse 112
influence 112
opened 112
cles 112
three-@@ 112
Mexico 112
San 111
calcu@@ 111
philosoph@@ 111
puts 111
oms 111
compe@@ 111
lated 111
define 111
vot@@ 111
leaving 111
th-@@ 111
ree@@ 111
struc@@ 111
camp@@ 111
brand 111
background 111
planets 111
mouth 111
factory 111
compar@@ 111
long@@ 111
trained 111
generate 111
businesses 111
chair 111
Mars 111
Ni@@ 110
asse@@ 110
activ@@ 110
investi@@ 110
opening 110
dry 110
paint 110
degree 110
surprise 110
scr@@ 110
brother 110
depression 110
struggle 110
See 110
fill 110
pop@@ 110
,@@ 110
argue 110
electron@@ 110
legi@@ 110
advantage 110
inclu@@ 110
assemb@@ 110
Very 110
tom@@ 110
mps 110
relevant 110
catch 110
section 109
increasingly 109
pal@@ 109
followed 109
experienced 109
essential 109
Ge@@ 109
university 109
electrical 109
Ac@@ 109
ily 109
operating 109
tual 109
pot@@ 109
fold 109
ote 109
kid@@ 109
Australia 109
Talk 109
enjoy 109
damage 109
institu@@ 109
scan@@ 108
milli@@ 108
wee@@ 108
acking 108
neighborhood 108
hair 108
alities 108
univer@@ 108
anger 108
begins 108
sold 108
losing 108
lunch 108
pain@@ 108
feedback 108
vaccine 108
after@@ 108
survival 108
produc@@ 108
predict 108
homes 108
mechan@@ 108
you@@ 108
proud 108
histor@@ 108
ha 108
quit@@ 108
ables 107
chemistry 107
yellow 107
5,000 107
expression 107
faith 107
appeared 107
surprised 107
spirit 107
abilities 107
block 107
ective 107
peri@@ 107
intr@@ 107
river 107
separate 107
meat 107
wan@@ 107
sul@@ 107
neuro@@ 107
slo@@ 107
tens 107
san@@ 107
School 107
aded 107
400 107
nose 107
constantly 107
cortex 107
sla@@ 107
Jo@@ 107
Einstein 107
magazine 107
flight 106
ala@@ 106
whi@@ 106
associated 106
sorry 106
sol@@ 106
stop@@ 106
experimen@@ 106
confi@@ 106
avoid 106
direct 106
distribution 106
wild 106
nity 106
sig@@ 106
phenomenon 106
sear@@ 106
link 106
sister 106
wise 106
anthro@@ 106
competition 106
threat 106
posi@@ 106
ffi@@ 106
cheap 106
violent 106
empo@@ 106
concerned 106
trac@@ 106
universal 106
characters 106
arms 105
spot 105
suggests 105
rural 105
print 105
Washington 105
doub@@ 105
astron@@ 105
perception 105
thin 105
gift 105
described 105
More 105
count 105
Twitter 105
west 105
-up 105
recogni@@ 105
thro@@ 105
Ste@@ 105
shapes 105
Yet 105
van 105
dimensions 105
interpre@@ 105
George 105
card 105
coll@@ 105
weapons 105
Thanks 105
ond 105
susp@@ 105
believed 105
ultimately 105
airplane 105
killing 105
bus 105
ads 105
matic 105
accomp@@ 105
Bro@@ 105
wide 104
analysis 104
enter 104
20th 104
Each 104
ening 104
facing 104
son@@ 104
honest 104
tough 104
therapy 104
solved 104
tural 104
sad 104
separ@@ 104
arely 104
coo@@ 104
elements 104
sequ@@ 104
worldwide 104
del@@ 104
mark 104
appear 104
cognitive 104
labor 104
letters 104
noise 104
mortality 104
brilliant 104
driven 104
reci@@ 104
angle 104
tons 104
organs 104
holes 104
im 104
Kenya 104
normally 103
inven@@ 103
influ@@ 103
ological 103
illness 103
sugg@@ 103
stood 103
tually 103
theater 103
forced 103
gro@@ 103
percei@@ 103
base 103
aged 103
stro@@ 103
Canada 103
identify 103
defin@@ 103
soldiers 103
compare 103
engineers 103
adop@@ 103
eng@@ 103
treated 103
tel@@ 102
demand 102
hur@@ 102
England 102
Ru@@ 102
Could 102
gy 102
economics 102
dest 102
confu@@ 102
sage 102
ager 102
museum 102
Charles 102
organized 102
harder 102
ops 102
Cam@@ 102
lif@@ 102
but@@ 102
marriage 102
moon 102
highest 102
breath 102
cy 102
ordinary 102
communi@@ 102
broad@@ 102
provi@@ 101
tioning 101
cultures 101
generations 101
valuable 101
sin@@ 101
safety 101
ain 101
2008 101
slowly 101
dist@@ 101
acceler@@ 101
leaves 101
strength 101
yl@@ 101
monit@@ 101
clock 101
collection 101
innov@@ 101
ai 101
Wor@@ 101
Du@@ 101
sugar 101
plus 100
scen@@ 100
rest@@ 100
rup@@ 100
ous@@ 100
scene 100
paying 100
ly@@ 100
hasn 100
dots 100
duction 100
earth 100
currently 100
Good 100
clin@@ 100
caused 100
commercial 100
multiple 100
gap 100
ld 100
fail 100
details 100
tun@@ 100
Coun@@ 100
wered 100
tune 100
bia 100
che 100
dings 100
artificial 100
tured 100
election 100
wealth 100
musc@@ 99
omy 99
passionate 99
ah 99
professional 99
velo@@ 99
testing 99
exc@@ 99
whom 99
Hel@@ 99
match 99
weird 99
45 99
fru@@ 99
fro@@ 99
satis@@ 99
radical 99
considered 99
lant 99
blu@@ 99
controlled 98
clinical 98
ski@@ 98
organisms 98
ion 98
religious 98
awesome 98
walls 98
forests 98
jump 98
solving 98
sting 98
productive 98
fell 98
property 98
inner 98
rely 98
transpar@@ 98
spoke 98
wake 98
ado@@ 98
employees 98
Second 98
invest 98
oned 98
strate@@ 98
wal@@ 98
dish 98
bubble 98
hon@@ 98
location 98
Paul 98
wondering 98
soil 98
pher@@ 97
lers 97
migr@@ 97
quest 97
engineer 97
berg 97
unfortunately 97
article 97
caught 97
MIT 97
While 97
gged 97
seriously 97
consumption 97
consequences 97
cious 97
repor@@ 97
secre@@ 97
acted 97
sentence 97
defined 97
preven@@ 97
swim 97
abi@@ 97
govern@@ 96
appro@@ 96
plane 96
interface 96
producing 96
maker 96
otherwise 96
negoti@@ 96
mit 96
leg 96
ods 96
aling 96
osity 96
tar 96
musical 96
tra 96
pleasure 96
feelings 96
empty 96
magi@@ 96
awful 96
affected 96
approa@@ 96
itation 96
za 96
eria 96
pay@@ 96
character@@ 96
oni@@ 96
Pr@@ 96
contact 96
graduate 96
circle 96
tains 96
gene 96
gency 96
connections 96
rain@@ 95
pages 95
gather@@ 95
bat@@ 95
unless 95
nan@@ 95
dy@@ 95
er-@@ 95
laugh@@ 95
graphic 95
cure 95
hadn 95
infected 95
tre@@ 95
malaria 95
frustr@@ 95
hos@@ 95
ger@@ 95
heads 95
virtual 95
partner 95
Everything 95
thy 95
discipl@@ 95
photographs 95
represent 95
videos 95
penguins 95
fav@@ 94
curious 94
mentary 94
fiction 94
confidence 94
molecular 94
calling 94
ur 94
specifically 94
according 94
ough 94
sharks 94
scar@@ 94
geous 94
metal 94
pounds 94
remote 94
chain 94
manage 94
tomorrow 94
rement 94
kno@@ 94
unexpected 94
nations 94
stea@@ 94
archit@@ 94
convinced 94
Do@@ 94
Times 94
whenever 94
blin@@ 94
prevent 94
democratic 94
tele@@ 94
narrative 93
diet 93
teen@@ 93
user 93
signed 93
parent 93
sending 93
Does 93
blocks 93
roll 93
wo@@ 93
spo@@ 93
bar 93
Their 93
finish 93
expected 93
hypothe@@ 93
instal@@ 93
professor 93
intelligent 93
released 93
threat@@ 93
prove 93
categ@@ 93
gender 93
empathy 93
pra@@ 93
cket 93
lum 93
regular 93
fewer 93
Come 93
resource 93
arts 93
vehicle 93
ings 92
accident 92
res@@ 92
chec@@ 92
president 92
concentr@@ 92
equivalent 92
xes 92
Street 92
mod@@ 92
promise 92
deeper 92
tum 92
grandmother 92
definitely 92
ride 92
arrived 92
Ad@@ 92
ina 92
underneath 92
spring 92
Ti@@ 92
printing 92
ama 92
politicians 92
magne@@ 92
ins@@ 92
de-@@ 92
entreprene@@ 92
Any@@ 92
Three 92
pollen 92
warming 92
weather 91
thoughts 91
ron@@ 91
duces 91
cont@@ 91
importance 91
sle@@ 91
dogs 91
perfor@@ 91
ca 91
closed 91
autom@@ 91
writer 91
on-@@ 91
Fri@@ 91
trick 91
designing 91
launched 91
hopefully 91
saved 91
sons 91
techniques 91
invention 91
divi@@ 91
civili@@ 91
mur@@ 91
mix 91
ty-@@ 91
mers 91
196@@ 91
Can@@ 91
adult 91
algorithms 91
copy 91
sources 91
driver 91
activi@@ 91
makers 90
debate 90
boat 90
tally 90
tations 90
cere@@ 90
cutting 90
picked 90
six@@ 90
lifetime 90
hell 90
notes 90
hol@@ 90
singing 90
players 90
sum@@ 90
Thomas 90
susta@@ 90
tables 90
enjo@@ 90
ang 90
gentlemen 90
Vo@@ 90
ints 90
Ca@@ 90
gin 90
psychology 90
Adam 90
relatively 90
itting 90
camp 90
atures 90
scal@@ 90
placed 90
Michael 90
absolute 90
signal 90
reward 90
eling 90
reaction 90
vie@@ 89
processes 89
fourth 89
worried 89
technical 89
ration 89
Harvard 89
Please 89
fre@@ 89
awareness 89
organ 89
compos@@ 89
independent 89
motion 89
management 89
heavy 89
athle@@ 89
lege 89
thir@@ 89
2010 89
terr@@ 89
credit 89
thin@@ 89
wings 89
fat 89
ka 89
refuge@@ 89
hospitals 89
ja@@ 89
near@@ 89
GPS 89
emissions 88
Gi@@ 88
appe@@ 88
practical 88
wine 88
Sha@@ 88
adly 88
dru@@ 88
une@@ 88
setting 88
elling 88
Christi@@ 88
bene@@ 88
hurt 88
emerging 88
budget 88
buying 88
selling 88
lock 88
switch 88
gor@@ 88
vulnerable 88
sco@@ 88
foundation 88
battery 88
sty 88
dom 88
stance 88
victims 88
mid@@ 88
require 88
rema@@ 88
invent 88
commit@@ 88
goods 88
whe@@ 88
metaphor 88
ships 88
cross 88
analo@@ 88
counter@@ 88
physici@@ 88
requires 88
sor@@ 88
reve@@ 88
elec@@ 88
post-@@ 88
shark 88
measu@@ 87
principle 87
illu@@ 87
Kore@@ 87
prob@@ 87
miss 87
toward 87
player 87
designers 87
accu@@ 87
mulation 87
effectively 87
nervous 87
mul@@ 87
3,000 87
jec@@ 87
epidemic 87
diagnos@@ 87
evil 87
neu@@ 87
marketing 87
short@@ 87
los@@ 87
encoura@@ 87
oting 87
addition 87
ater 87
visu@@ 87
stronger 87
mony 87
dered 87
staff 87
cir@@ 87
rates 87
coal 87
topic 86
wave 86
control@@ 86
grandfather 86
risks 86
Germany 86
Wa@@ 86
mistakes 86
mb 86
woo@@ 86
figu@@ 86
release 86
status 86
spectrum 86
dynamic 86
existing 86
smile 86
fal@@ 86
arri@@ 86
Life 86
island 86
civilization 86
lish 86
was@@ 86
folks 86
newspaper 86
bright 86
attrac@@ 86
resear@@ 86
ya 86
real@@ 86
exercise 86
introduced 86
transformation 86
tracking 86
signals 86
portra@@ 86
liver 86
psy@@ 86
ecosystem 86
rot@@ 86
alists 85
sively 85
trials 85
memories 85
gras@@ 85
150 85
birthday 85
honor 85
modi@@ 85
ale 85
len 85
conclu@@ 85
sible 85
mirac@@ 85
layer 85
lessons 85
actor 85
accept 85
trip 85
drink 85
cers 85
disco@@ 85
fields 85
ception 85
Pla@@ 85
bird 85
pack@@ 85
amounts 85
restaurant 85
double 85
exists 85
peak 85
false 85
logi@@ 85
barri@@ 85
Center 85
long-term 85
waves 85
af@@ 85
manipu@@ 85
humor 85
cope 85
CO2 85
gies 85
YouTube 85
horse 85
val 85
program@@ 85
introduce 85
X-@@ 85
exact 85
novel 85
phot@@ 85
gram 85
engaged 85
Sun 85
N 85
dolph@@ 85
silence 84
play@@ 84
east 84
chu@@ 84
xed 84
75 84
master 84
Since 84
ris@@ 84
bottle 84
roughly 84
estab@@ 84
iness 84
seat 84
San@@ 84
han@@ 84
remain 84
personally 84
added 84
possibilities 84
bear 84
lady 84
stupid 84
35 84
tox@@ 84
Pi@@ 83
alternative 83
sation 83
tter 83
now@@ 83
va 83
bike 83
ancy 83
sees 83
appropriate 83
falling 83
breaking 83
fr@@ 83
ance@@ 83
farm 83
comple@@ 83
mention 83
anic 83
remin@@ 83
cards 83
insight 83
poetry 83
well-being 83
carefully 83
custom@@ 83
kilometers 83
Man 83
dramatic 83
warm 83
vel@@ 83
alter@@ 83
Haiti 83
ket 83
click 83
James 83
tradition 83
habit@@ 83
loy@@ 83
tings 83
principles 83
eleph@@ 83
Cha@@ 82
grid 82
cienti@@ 82
occa@@ 82
meaningful 82
inher@@ 82
acci@@ 82
till 82
correct 82
sensitive 82
ition 82
depends 82
pop 82
dian 82
express 82
stable 82
pre-@@ 82
ng-@@ 82
nging 82
part@@ 82
crip@@ 82
pest 82
sets 82
error 82
accurate 82
2.@@ 82
eless 82
expec@@ 82
explains 82
tent 82
pt 82
gation 82
simul@@ 82
Mini@@ 82
encourage 82
thers 82
lau@@ 82
author 82
tili@@ 82
dir@@ 82
platform 82
Al 82
liquid 82
Richard 82
dealing 81
lat@@ 81
mentioned 81
help@@ 81
voc@@ 81
anti-@@ 81
funding 81
correc@@ 81
subjects 81
atu@@ 81
electric 81
spar@@ 81
interests 81
inev@@ 81
announ@@ 81
recor@@ 81
wer@@ 81
proteins 81
circumstances 81
doubt 81
scared 81
battle 81
arily 81
ug@@ 81
fellow 81
reason@@ 81
As@@ 81
rare 81
ets 81
components 81
one@@ 81
walks 81
Lin@@ 81
Sweden 81
encoun@@ 81
studio 81
protection 81
combine 81
zon@@ 81
chemicals 81
Bal@@ 81
lessly 81
plans 81
- 81
stric@@ 81
dio 81
Cu@@ 81
wars 81
particles 81
the-@@ 81
mush@@ 81
variety 80
perform 80
hip 80
typically 80
Mil@@ 80
story@@ 80
ham@@ 80
chose 80
memor@@ 80
sequence 80
participate 80
cs 80
atoms 80
50,000 80
factor 80
multi-@@ 80
nge 80
lin 80
chicken 80
shame 80
judg@@ 80
wering 80
II 80
cle 80
ison 80
hel@@ 80
ckets 80
temporary 80
nership 80
encing 80
rapidly 80
invest@@ 80
zi@@ 80
Robert 80
carrying 80
appears 80
privi@@ 80
constant 80
eled 80
environments 80
logic 80
frame 80
capture 80
des@@ 80
pres@@ 80
gold 80
Ab@@ 80
ind 80
advice 80
Web 80
string 80
sia 80
Stu@@ 80
gravity 80
joined 79
sub-@@ 79
chest 79
bb@@ 79
inary 79
chee@@ 79
sche@@ 79
cell@@ 79
dan@@ 79
improvi@@ 79
sports 79
jected 79
percentage 79
tile 79
fresh 79
framework 79
shoul@@ 79
root 79
Last 79
innovative 79
prepar@@ 79
mind@@ 79
sweet 79
ority 79
year-old 79
Britain 79
fundamentally 79
Art 79
Bab@@ 79
worlds 79
ural 79
hydrogen 79
unit 79
PM 79
conser@@ 79
unusual 79
economies 79
transition 79
senses 79
mathematics 79
goals 79
viewed 78
therap@@ 78
burn 78
domin@@ 78
195@@ 78
authority 78
peace@@ 78
replace 78
conventional 78
boun@@ 78
applied 78
pair 78
wondered 78
sample 78
ken 78
messages 78
abled 78
dense 78
runs 78
house@@ 78
stics 78
Day 78
spon@@ 78
asing 78
bet 78
Gr@@ 78
patent 78
stin@@ 78
galaxy 78
overwhel@@ 78
intellectual 78
mountains 78
movies 78
ounds 78
swimming 78
Los 78
great@@ 78
interview 78
danger 78
auton@@ 78
Wow 78
member 78
attacks 78
candi@@ 78
flower 78
tested 78
arch@@ 78
animation 78
navi@@ 78
boxes 77
films 77
cong@@ 77
computing 77
opinion 77
concrete 77
Dan 77
gh 77
increasing 77
element 77
suggest 77
primary 77
medium 77
dicated 77
ssi@@ 77
flowers 77
roads 77
J 77
tumor 77
doors 77
philosophy 77
lung 77
venture 77
recei@@ 77
hood 77
seven@@ 77
disaster 77
hoping 77
Q@@ 77
Demo@@ 77
Rus@@ 77
vely 77
Her 77
exchange 77
strict 77
architect 77
elev@@ 77
manufacturing 77
graphy 77
Mal@@ 77
dic 77
entrepreneurs 77
collapse 77
former 77
solid 77
finance 77
regions 77
Bank 77
sci@@ 77
economists 77
file 77
teams 77
passwords 77
21st 76
cave 76
associ@@ 76
liter@@ 76
hard@@ 76
gen 76
fake 76
main@@ 76
gam@@ 76
tious 76
rhyth@@ 76
keys 76
increased 76
shaped 76
discussion 76
aggre@@ 76
wash@@ 76
aten 76
corpor@@ 76
trop@@ 76
traveling 76
severe 76
ghter 76
polio 76
however 76
collaboration 76
me-@@ 76
instruc@@ 76
oceans 76
jump@@ 76
processing 76
lec@@ 76
600 76
tory 76
pet 76
miser@@ 76
100,000 76
esp@@ 76
een 76
Her@@ 76
sunlight 76
automa@@ 76
base@@ 76
factors 76
destruction 76
ow 76
teeth 76
facial 76
instrument 76
gli@@ 75
00@@ 75
fe 75
ssions 75
tat@@ 75
nor 75
acqui@@ 75
prepared 75
behavioral 75
skill 75
mming 75
sym@@ 75
escap@@ 75
cry 75
Only 75
five-@@ 75
yesterday 75
served 75
constra@@ 75
2000 75
visible 75
operation 75
vaccines 75
movements 75
combination 75
crow@@ 75
2007 75
option 75
diag@@ 75
tries 75
org@@ 75
steel 75
U.N. 75
Bur@@ 75
she@@ 75
bal 75
cies 75
resistance 75
land@@ 75
estion 75
cooking 75
conversations 75
craft 74
journ@@ 74
sophisticated 74
behaviors 74
previous 74
ware 74
yard 74
cians 74
Rob@@ 74
dem@@ 74
applications 74
enced 74
cents 74
Gra@@ 74
sing@@ 74
p-@@ 74
stand@@ 74
toler@@ 74
gon@@ 74
port 74
centers 74
lished 74
zer@@ 74
transportation 74
exter@@ 74
holds 74
Russia 74
heroes 74
groun@@ 74
tee 74
challenging 74
propor@@ 74
sup@@ 74
relations 74
expert 74
Ital@@ 74
of-@@ 74
resili@@ 74
mism 74
Congress 74
virtu@@ 74
Ser@@ 74
include 74
competi@@ 74
Obama 74
President 74
via 74
duced 74
stands 74
aled 74
bag 74
cas@@ 74
tery 74
mes@@ 74
radiation 73
offers 73
reverse 73
procedu@@ 73
promis@@ 73
mirror 73
He@@ 73
generally 73
venue 73
instinc@@ 73
authenti@@ 73
surroun@@ 73
agriculture 73
south 73
deva@@ 73
gui@@ 73
cameras 73
busy 73
convince 73
ade 73
open@@ 73
hori@@ 73
some@@ 73
Perhaps 73
eggs 73
Sp@@ 73
progre@@ 73
controver@@ 73
cki@@ 73
photograph@@ 73
crowd 73
tea 73
mechanism 73
mum 73
represents 73
border 73
lifestyle 73
tests 73
sin 73
fusion 73
MRI 72
chron@@ 72
tled 72
loud 72
literature 72
cow 72
consist@@ 72
estimate 72
bee@@ 72
Nobody 72
econom@@ 72
department 72
and-@@ 72
stock 72
ge-@@ 72
tie 72
shake 72
17@@ 72
drin@@ 72
dancing 72
Pre@@ 72
Also 72
zone 72
ghters 72
mistake 72
tain@@ 72
ast@@ 72
samples 72
transformed 72
maps 72
anony@@ 72
lob@@ 72
Tor@@ 72
stret@@ 72
Muslim 72
Pakistan 72
stayed 72
milk 72
net@@ 72
illegal 72
situations 72
certainty 72
Gre@@ 72
imple@@ 72
sw@@ 72
parking 72
iPhone 72
courage 72
addic@@ 72
Man@@ 72
sustainability 72
Steve 72
key@@ 72
Institute 72
surve@@ 72
process@@ 72
axis 72
stry 72
ducing 72
Pri@@ 72
earthquake 72
F 72
electr@@ 72
inspiration 72
German 72
Den@@ 72
sacrifi@@ 72
May 72
Francisco 71
satellite 71
display 71
gration 71
potentially 71
vor 71
reas@@ 71
bili@@ 71
hits 71
rough 71
ples 71
options 71
ite@@ 71
physically 71
embarras@@ 71
neighbors 71
intense 71
intro@@ 71
verage 71
coast 71
Pe@@ 71
gy@@ 71
winter 71
Pal@@ 71
continent 71
ultimate 71
ren 71
Sec@@ 71
Tu@@ 71
pulled 71
unh@@ 71
touched 71
refu@@ 71
determine 71
existence 71
presence 71
identical 71
jective 71
Gulf 71
atten@@ 71
metabo@@ 71
somewhat 71
ngo@@ 71
immune 71
Pole 71
signs 71
cyber@@ 71
tape 71
clouds 71
Hi@@ 71
NASA 71
dated 71
yi@@ 71
diagnosed 71
jection 71
web@@ 71
inju@@ 71
Paris 71
Islamic 71
collecting 71
borders 71
appar@@ 71
tica 71
plays 71
Free@@ 71
Fin@@ 71
hunger 71
motor 71
ams 71
Wikipedia 71
laboratory 70
buil@@ 70
slu@@ 70
deman@@ 70
deta@@ 70
2009 70
detect 70
whist@@ 70
proof 70
Everyone 70
ere 70
wl 70
Give 70
dding 70
swe@@ 70
advanced 70
dary 70
writ@@ 70
come@@ 70
art@@ 70
collected 70
ags 70
ok 70
ire 70
joke 70
burning 70
globe 70
viruses 70
closely 70
16@@ 70
bust 70
organi@@ 70
corporate 70
scho@@ 70
yan 70
treat@@ 70
tonight 70
deser@@ 70
allowing 70
life-@@ 70
equally 70
thanks 70
neighbor@@ 70
fel@@ 70
functional 70
ry@@ 70
Museum 70
interactive 70
quanti@@ 70
embrace 70
centuries 70
epi@@ 70
poses 70
lig@@ 70
technique 70
fan 70
puzzle 70
ladies 70
vehicles 70
males 70
gible 70
shall 70
January 70
desert 70
properties 70
Derek 70
Sch@@ 69
ques@@ 69
Pu@@ 69
admit 69
fears 69
Mark 69
painful 69
rememb@@ 69
contrast 69
mainly 69
keeps 69
hide 69
cast 69
racing 69
grain 69
protected 69
mous 69
Martin 69
paraly@@ 69
activities 69
unknown 69
Nigeria 69
desper@@ 69
ading 69
spreading 69
blog 69
je@@ 69
distinc@@ 69
Ben@@ 69
phrase 69
occur@@ 69
boring 69
symptoms 69
chol@@ 69
broke 69
internal 69
ctic 69
aces 69
arguments 69
pon@@ 69
implications 69
omes 69
dless 69
horrible 69
chart 69
dia 69
nee@@ 69
care@@ 69
generated 69
length 69
dit@@ 69
style 69
Nu@@ 69
glu@@ 69
ben@@ 69
intuitive 69
co-@@ 69
chop@@ 69
King 69
icks 69
fab@@ 69
Kh@@ 69
Swe@@ 69
fund 69
wheel 69
continued 69
ecture 69
commu@@ 68
echnology 68
bed@@ 68
inspi@@ 68
fossi@@ 68
journalist 68
ballo@@ 68
Christmas 68
water@@ 68
pack 68
incentives 68
Sun@@ 68
reaching 68
Dis@@ 68
thic 68
band 68
ame 68
elimin@@ 68
tles 68
perman@@ 68
mobi@@ 68
ngdom 68
lap@@ 68
September 68
orders 68
ant@@ 68
chocolate 68
dropped 68
appear@@ 68
healthcare 68
claim 68
pushing 68
faced 68
stress@@ 68
raising 68
evalu@@ 68
conflicts 68
assi@@ 68
hoods 68
conclusion 68
Before 68
ections 68
explained 68
underwater 68
strea@@ 68
kitchen 68
soul 68
phase 68
trau@@ 68
bias 68
prefer 68
Science 68
measuring 68
pregnant 68
wide@@ 68
alist 68
tary 68
Dec@@ 68
loyed 68
ord 68
19th 68
Gener@@ 68
execu@@ 68
expres@@ 68
obesity 68
xy 68
designs 68
entertainment 68
ared 68
rors 68
bloo@@ 67
pocket 67
unlike 67
Tri@@ 67
classes 67
post 67
fam@@ 67
systema@@ 67
rever@@ 67
quiet 67
performing 67
loop 67
ser 67
pure 67
surrounded 67
vest 67
Egypt 67
records 67
prototype 67
itarian 67
largely 67
brothers 67
secon@@ 67
mail 67
nel 67
galaxies 67
insurance 67
hero 67
appy 67
mble 67
tiv@@ 67
so-@@ 67
missed 67
providing 67
cau@@ 67
logically 67
indi@@ 67
list@@ 67
funded 67
About 67
Manhattan 67
ero@@ 67
relate 67
overall 67
flexi@@ 67
advertising 67
chip 67
kh@@ 67
worker 67
viol@@ 67
struck 67
likes 67
judge 67
swi@@ 67
ton@@ 67
obsessed 67
gan 67
Nobel 67
required 67
stations 67
cats 67
fic@@ 67
bit@@ 67
lus 67
reached 67
channel 67
lot@@ 67
li 67
Inter@@ 66
ange 66
collap@@ 66
m-@@ 66
divide 66
Tom 66
underst@@ 66
Basically 66
plate 66
cil 66
recorded 66
roots 66
sel 66
assume 66
grateful 66
kness 66
shoot 66
State 66
mile 66
feeding 66
.D. 66
expan@@ 66
Anyway 66
stern 66
dream@@ 66
ideal 66
greenhouse 66
mix@@ 66
mystery 66
frankly 66
breathe 66
causing 66
smar@@ 66
wire@@ 66
angry 66
tative 66
dot 66
Revolution 66
lites 66
sau@@ 66
spoken 66
fail@@ 66
ight 66
rom@@ 66
sey 66
sleep@@ 66
launch 66
ign 66
housing 66
lates 66
Cal@@ 66
naturally 66
disappear 66
consumer 66
app 66
garden 66
crea@@ 66
mathematical 66
pollution 66
limits 66
mechanical 66
lite 66
jail 66
bold 65
papers 65
latest 65
outcome 65
celebr@@ 65
careful 65
Irani@@ 65
sten 65
ly-@@ 65
pose 65
grab 65
nurses 65
eets 65
shir@@ 65
honest@@ 65
remove 65
soun@@ 65
songs 65
volume 65
Latin 65
suffer 65
pen 65
Ed@@ 65
Israel@@ 65
shy 65
north 65
raw 65
moder@@ 65
esthe@@ 65
era@@ 65
strangers 65
cat 65
21 65
younger 65
comman@@ 65
pointed 65
vor@@ 65
theme 65
seed 65
titu@@ 65
efficiency 65
agencies 65
pharm@@ 65
antibiotics 65
orities 65
fingers 65
dates 65
place@@ 65
recon@@ 65
puzz@@ 65
sually 65
religions 65
apartment 65
prac@@ 65
oes 65
arian 65
Alzheimer 65
follo@@ 65
tribe 65
methods 65
shar@@ 65
deaths 65
handle 65
senten@@ 65
SW 65
consu@@ 64
offered 64
classic 64
Ci@@ 64
academic 64
engagement 64
accessible 64
outcomes 64
input 64
abstract 64
oxytocin 64
vulnerability 64
wherever 64
four-@@ 64
kee@@ 64
maintain 64
loc@@ 64
passe@@ 64
onies 64
oling 64
toilet 64
ational 64
cup 64
Satur@@ 64
tied 64
lied 64
py 64
indic@@ 64
ssive 64
populations 64
educational 64
functions 64
graph@@ 64
customers 64
tax 64
tall 64
shut 64
prece@@ 64
ures 64
statement 64
ector 64
fascinated 64
suc@@ 64
flat 64
co 64
sexu@@ 64
ession 64
laugh 64
calcul@@ 64
kilo@@ 64
illusion 64
Pol@@ 64
lest 64
ak 64
interactions 64
graphics 64
inh@@ 64
sensors 64
organ@@ 64
paradig@@ 64
tion-@@ 64
figures 64
swee@@ 64
hearts 64
criminal 64
historical 64
al-@@ 64
grand 64
locked 64
ba 64
clear@@ 63
dozen 63
summar@@ 63
Cap@@ 63
traveled 63
teenagers 63
absor@@ 63
finite 63
cheaper 63
mulate 63
ou 63
2005 63
ario 63
drives 63
origin@@ 63
refriger@@ 63
evolutionary 63
ing@@ 63
stors 63
refer@@ 63
Finally 63
hang@@ 63
sna@@ 63
eep 63
gos 63
floo@@ 63
prison@@ 63
taste 63
roof 63
church 63
planes 63
ament 63
repair 63
selection 63
secure 63
ids 63
ented 63
oring 63
Cor@@ 63
whereas 63
dea@@ 63
distur@@ 63
contribute 63
any@@ 63
Ga@@ 63
concepts 63
Antar@@ 63
cans 63
focu@@ 63
datab@@ 63
tan 63
diplom@@ 63
sic 63
formation 63
dictionary 63
mil@@ 63
explos@@ 62
banks 62
Smith 62
component 62
citiz@@ 62
tour 62
eld 62
occurred 62
bre@@ 62
distributed 62
behave 62
curi@@ 62
volunteers 62
inno@@ 62
ignorance 62
who@@ 62
France 62
Foundation 62
furniture 62
frozen 62
poorest 62
99 62
nets 62
commitment 62
surely 62
.C. 62
reads 62
sticks 62
serving 62
ingredients 62
equation 62
pare 62
poem 62
Joe 62
afternoon 62
happier 62
medit@@ 62
climb@@ 62
particip@@ 62
ests 62
ener@@ 62
clever 62
ridicul@@ 62
technological 62
dam@@ 62
attempt 62
Angeles 62
mon 62
hang 62
existed 62
guaran@@ 62
dau@@ 62
Boston 62
fortunate 62
desk 62
dang@@ 62
library 62
partners 62
coral 62
geni@@ 62
cartoon 62
speaker 62
weal@@ 62
windows 62
winning 62
imagined 62
height 62
Five 62
Mor@@ 62
lear@@ 62
apple 62
precisely 62
CA@@ 62
translate 62
application 62
button 62
gray 62
practices 62
bun@@ 62
fathers 62
wheelchair 62
reference 62
Higgs 62
14@@ 61
electro@@ 61
imaging 61
shock 61
director 61
crimin@@ 61
oral 61
plenty 61
trend 61
sities 61
morality 61
Eric 61
official 61
cus 61
int@@ 61
combined 61
army 61
recyc@@ 61
Eastern 61
sheep 61
sum 61
evening 61
shell 61
vin@@ 61
curve 61
bow 61
vember 61
colum@@ 61
Ken@@ 61
tube 61
anding 61
divided 61
taneously 61
pursu@@ 61
lor 61
dramatically 61
marke@@ 61
hotel 61
Chicago 61
run@@ 61
receive 61
ram 61
chromos@@ 61
appreciate 61
captured 61
n-@@ 61
steri@@ 61
veness 61
three-dimensional 61
PA 61
clothes 61
-like 61
Sou@@ 61
cially 61
A-@@ 61
thier 61
bomb 61
V 61
mining 61
achieved 61
nowhere 61
soft 61
manu@@ 61
impre@@ 61
lium 61
admini@@ 61
seeds 61
Atlan@@ 61
Arabic 61
inequality 61
Afri@@ 61
tin 61
tals 61
copy@@ 61
ze@@ 60
teries 60
secu@@ 60
Will 60
12@@ 60
Project 60
cin@@ 60
increases 60
survey 60
falls 60
what@@ 60
ena 60
mess 60
extent 60
adapt 60
enemy 60
an-@@ 60
bucks 60
gger 60
rising 60
hungry 60
cook 60
climb 60
Oc@@ 60
cratic 60
wired 60
cord 60
kets 60
95 60
knee 60
ghted 60
apo@@ 60
destroy 60
ew 60
Os 60
fat@@ 60
.m. 60
pred@@ 60
successfully 60
destroyed 60
hot@@ 60
anim@@ 60
year-olds 60
parti@@ 60
distr@@ 60
frighten@@ 60
ould 60
wanting 60
ac 60
boo@@ 60
Union 60
-making 60
license 60
sign@@ 60
Be 60
manufac@@ 60
Health 60
golf 60
open-source 60
brow@@ 60
gal 60
tribes 60
constitu@@ 60
organize 60
Really 60
herself 60
connecting 60
ulous 60
attribu@@ 60
polar 60
fixed 60
65 60
comprom@@ 60
stries 60
Unfortunately 60
gun@@ 60
ham 60
photography 60
embedded 60
fishing 60
optimistic 60
pun@@ 60
elections 60
bo 60
trillion 60
At@@ 59
Hi 59
Peter 59
nels 59
aspects 59
half-@@ 59
ech 59
villages 59
surprisingly 59
engaging 59
removed 59
Mel@@ 59
remind 59
clean@@ 59
Ka@@ 59
tioned 59
eg@@ 59
random@@ 59
remains 59
Viet@@ 59
otic 59
surgeon 59
ere@@ 59
bree@@ 59
disorder 59
rati@@ 59
scan 59
inspiring 59
astro@@ 59
acti@@ 59
abun@@ 59
imper@@ 59
tancy 59
shor@@ 59
mind-@@ 59
gestu@@ 59
ouri@@ 59
smoke 59
meetings 59
expectations 59
Cho@@ 59
laptop 59
develop@@ 59
agri@@ 59
cock@@ 59
cular 59
classical 59
U 59
apers 59
shif@@ 59
by-@@ 59
standards 59
ota 59
22 59
invite 59
tract 59
Ven@@ 59
Next 59
prosper@@ 59
extrac@@ 59
obstac@@ 59
psychi@@ 59
tize 59
regar@@ 59
zar@@ 59
oty@@ 59
speakers 59
oldest 59
Green@@ 59
phosph@@ 59
charity 59
whales 59
whale 59
chemi@@ 58
robotic 58
upper 58
deed 58
projec@@ 58
celebrate 58
sky@@ 58
indepen@@ 58
thou@@ 58
provided 58
descrip@@ 58
hack@@ 58
A. 58
react 58
bacter@@ 58
sheet 58
difficul@@ 58
evolve 58
instruments 58
orches@@ 58
sized 58
audi@@ 58
van@@ 58
gather 58
unlikely 58
consume 58
piano 58
bi 58
spinal 58
savings 58
Gates 58
printed 58
addre@@ 58
ema@@ 58
delivered 58
hall 58
profession@@ 58
attemp@@ 58
statisti@@ 58
session 58
ause 58
linked 58
ste 58
silent 58
Prize 58
bones 58
shine 58
conveni@@ 58
4,000 58
stun@@ 58
exploration 58
comfort 58
grass 58
vy 58
20,000 58
ays 58
Darwin 58
enh@@ 58
connec@@ 58
rays 58
split 58
desti@@ 58
reported 58
expand 58
represented 58
decline 58
eries 58
tradi@@ 58
Amazon 58
dition 58
romantic 58
corn 58
dig@@ 58
powers 58
gence 58
osaurs 58
rupt 58
tian 58
gn@@ 58
vibra@@ 58
phenomen@@ 58
ngue 58
Islam 58
inte@@ 57
vac@@ 57
chap@@ 57
paintings 57
transforma@@ 57
season 57
choos@@ 57
provo@@ 57
fed 57
aspect 57
Mos@@ 57
chosen 57
synthe@@ 57
champ@@ 57
nh@@ 57
injury 57
Get 57
Rom@@ 57
ignore 57
pret@@ 57
crying 57
mies 57
presen@@ 57
dan 57
Pen@@ 57
beach 57
dependent 57
anced 57
ologist 57
breathing 57
coordin@@ 57
fic 57
tac@@ 57
suicide 57
volunte@@ 57
23 57
Lea@@ 57
dges 57
vable 57
NG@@ 57
new@@ 57
reveal 57
dder 57
efforts 57
Congo 57
ried 57
anticip@@ 57
ference 57
dimensional 57
pool 57
demonstrate 57
olly 57
Apple 57
scary 57
describes 57
astonishing 57
lovely 57
footprint 57
spa@@ 57
enable 57
succeed 57
yp@@ 57
Muslims 57
presented 57
arre@@ 57
bert 57
agenda 57
femin@@ 57
ror 57
diab@@ 57
bicycle 57
shadow 57
lighting 57
photograp@@ 57
score 57
defense 57
telescope 57
ela 57
musi@@ 57
accur@@ 57
oid 57
regret 57
Gabby 57
rements 56
ination 56
bly 56
reg@@ 56
Rwanda 56
thrown 56
pressing 56
properly 56
title 56
stroke 56
Bible 56
musicians 56
gall@@ 56
onic 56
measured 56
conservation 56
poin@@ 56
Hal@@ 56
Phili@@ 56
Hun@@ 56
ight@@ 56
spiritual 56
Gree@@ 56
wire 56
Ter@@ 56
mor 56
alizing 56
momen@@ 56
War@@ 56
py@@ 56
rami@@ 56
sour@@ 56
ectively 56
addi@@ 56
Bang 56
-and-@@ 56
enly 56
essence 56
nit@@ 56
relation 56
participants 56
depend 56
affordable 56
Fa@@ 56
istics 56
fifth 56
shifting 56
instantly 56
frea@@ 56
exploring 56
sphere 56
depen@@ 56
intri@@ 56
algorith@@ 56
ense 56
beliefs 56
Valley 56
rat 56
finds 56
full-@@ 56
pollin@@ 56
cials 56
chairs 56
symbol 56
compas@@ 56
neuroscience 56
tized 56
recovery 56
extinct 56
amongst 56
females 56
cartoons 56
agreed 56
form@@ 56
real-@@ 56
life@@ 56
vol@@ 56
fabric 56
grows 56
extract 56
mani@@ 56
tate 56
debt 56
boundaries 55
tack@@ 55
2006 55
pilot 55
neither 55
friendly 55
lities 55
omic 55
document 55
ye 55
Por@@ 55
letting 55
Ob@@ 55
explanation 55
batt@@ 55
Remember 55
granted 55
drawn 55
cake 55
zer 55
exhibi@@ 55
Star@@ 55
succee@@ 55
200@@ 55
failing 55
ual 55
mentally 55
27 55
calculate 55
worthy 55
compla@@ 55
paren@@ 55
presentation 55
origami 55
imagery 55
carried 55
derly 55
rescue 55
ird 55
unclear 55
powered 55
ter-@@ 55
anxiety 55
Ke@@ 55
partment 55
Wil@@ 55
laser 55
coho@@ 55
Budd@@ 55
dominant 55
tops 55
licate 55
inch 55
hemis@@ 55
attached 55
density 55
relative 55
stere@@ 55
ank@@ 55
actors 55
Shi@@ 55
units 55
yor 55
cooperation 55
extre@@ 55
reson@@ 55
talent 55
bility 55
hyper@@ 55
anz@@ 55
edit@@ 55
microscope 55
hallucin@@ 55
depending 55
Nothing 55
drone 55
truck 55
Ty@@ 55
Sau@@ 55
etes 55
criminals 55
spee@@ 55
needle 55
sculpture 55
80s 55
consumers 55
drill 55
drones 55
neuros@@ 55
Girl 55
password 55
func@@ 54
Whe@@ 54
Dur@@ 54
Rio 54
House 54
dency 54
ros@@ 54
Other 54
X 54
policies 54
La 54
ums 54
lou@@ 54
19 54
poly@@ 54
tories 54
Tra@@ 54
tea@@ 54
leep 54
abu@@ 54
rap 54
sensory 54
premi@@ 54
struggling 54
returned 54
Mat@@ 54
rer 54
quan@@ 54
Dar@@ 54
knowle@@ 54
Act 54
isms 54
resistant 54
pointing 54
proper 54
snow 54
é@@ 54
privacy 54
Jon@@ 54
40@@ 54
underground 54
agers 54
ecu@@ 54
recognition 54
bee 54
consequ@@ 54
vessels 54
restore 54
ee 54
Squ@@ 54
2011 54
ko 54
Bon@@ 54
lesc@@ 54
Talks 54
auti@@ 54
eye@@ 54
mathema@@ 54
smart@@ 54
ara@@ 54
clip 53
mou@@ 53
achie@@ 53
ert 53
osphere 53
2004 53
Hon@@ 53
slides 53
ves@@ 53
sely 53
dal 53
acific 53
Gar@@ 53
SA 53
evol@@ 53
sus 53
employ@@ 53
spir@@ 53
zations 53
neighb@@ 53
nes@@ 53
My@@ 53
ells 53
2003 53
conf@@ 53
rants 53
Saharan 53
less@@ 53
laun@@ 53
zoom 53
Wall 53
30s 53
nos@@ 53
usual 53
vey 53
viewer 53
Peace 53
phere 53
ink@@ 53
ple 53
Time 53
expla@@ 52
Ben 52
glo@@ 52
Ah 52
lan 52
jazz 52
gir@@ 52
shopping 52
obe@@ 52
hy 52
lary 52
June 52
Tony 52
Bra@@ 52
timate 52
long-@@ 52
safe@@ 52
I.@@ 52
cient 52
Indu@@ 52
swit@@ 52
tissu@@ 52
centi@@ 52
atta@@ 52
Nature 52
Ear@@ 52
gely 52
tely 52
grams 52
vative 52
dung 52
Green 52
appreci@@ 52
Jen@@ 52
hen@@ 52
gers 52
We@@ 52
schizoph@@ 52
dioxide 52
Frank 51
Love 51
Howard 51
Yorker 51
dyna@@ 51
ril@@ 51
mad 51
International 51
cei@@ 51
Stanford 51
mation 51
consci@@ 51
desp@@ 51
abor@@ 51
trou@@ 51
Henry 51
phil@@ 51
hil@@ 51
opti@@ 51
Gal@@ 51
mely 51
class@@ 51
profes@@ 51
Sy@@ 51
transi@@ 51
ographic 51
gol@@ 51
Gol@@ 51
Fu@@ 51
Beij@@ 51
Rec@@ 50
Cambridge 50
Chri@@ 50
colleagu@@ 50
cide 50
El@@ 50
ora 50
intu@@ 50
coura@@ 50
ini@@ 50
yn@@ 50
symp@@ 50
Children 50
amin 50
.com 50
eni@@ 50
ass 50
29 50
vel 50
Br@@ 50
power@@ 50
expen@@ 50
immu@@ 50
eline 50
ffer@@ 50
Prin@@ 50
sculp@@ 50
Mis@@ 50
curren@@ 50
MT 50
Space 50
impos@@ 49
Gen@@ 49
phony 49
hop 49
nd 49
cip@@ 49
allo@@ 49
mar 49
Island 49
dimen@@ 49
Hop@@ 49
Fellow 49
tral 49
strial 49
gover@@ 49
ung 49
sens@@ 49
cky 49
eck 49
US@@ 49
cess 49
33 49
Char@@ 48
nam@@ 48
anda 48
Y 48
Ari@@ 48
aria 48
Brian 48
Fer@@ 48
sit@@ 48
26 48
extra@@ 48
ak@@ 48
with@@ 48
incenti@@ 48
28 48
dar 48
SS 48
toi@@ 48
micros@@ 48
Ali@@ 48
agu@@ 48
condi@@ 48
got@@ 48
til 48
crac@@ 48
ghtly 48
xu@@ 48
memb@@ 48
commer@@ 48
Central 48
0.@@ 48
ban 47
asy 47
194@@ 47
tin@@ 47
ga 47
artic@@ 47
gie 47
Mas@@ 47
Me 47
zy 47
soldi@@ 47
Long 47
zo@@ 47
tle@@ 47
elly 47
conn@@ 47
800 47
sa 47
Em@@ 47
desi@@ 47
plac@@ 47
ican 47
Jac@@ 47
Mer@@ 47
Ros@@ 47
Min@@ 47
robo@@ 47
quot@@ 47
ese 47
Hom@@ 47
lings 47
mption 47
Mad@@ 47
sugge@@ 47
suffer@@ 47
entropy 47
Microsoft 47
Lib@@ 47
tus 47
Ford 47
rele@@ 46
streng@@ 46
primar@@ 46
pression 46
valu@@ 46
enz@@ 46
alu@@ 46
rane 46
vacc@@ 46
Red 46
bud@@ 46
Bang@@ 46
tim 46
kins 46
Oxford 46
Juli@@ 46
equi@@ 46
Spe@@ 46
tap@@ 46
exhi@@ 46
Ghana 46
favor@@ 46
oph@@ 46
sal 46
con 46
chil@@ 46
antly 46
nifi@@ 46
Lan@@ 46
gel 46
pizza 46
marath@@ 46
cele@@ 46
q@@ 46
all@@ 46
Lar@@ 46
newsp@@ 46
experi@@ 46
ego 46
solu@@ 46
ED 46
progra@@ 46
temper@@ 46
immedi@@ 45
spea@@ 45
dow 45
tting 45
grap@@ 45
aning 45
unch 45
Palesti@@ 45
stom@@ 45
optimi@@ 45
fing@@ 45
nia 45
smal@@ 45
She@@ 45
Lee 45
Bri@@ 45
esses 45
les@@ 45
Tru@@ 45
0 45
avo@@ 45
sibility 45
St. 45
age@@ 45
bble 45
Gla@@ 45
dow@@ 45
gran@@ 45
Fre@@ 45
250 45
rough@@ 45
ng 45
Phil@@ 45
Am@@ 45
kie 45
jud@@ 45
ead 45
Sar@@ 45
cracy 45
Koran 45
jihad 45
teen 44
sity 44
Pas@@ 44
Austr@@ 44
dows 44
oli@@ 44
campa@@ 44
requi@@ 44
Taliban 44
Mur@@ 44
3.@@ 44
larly 44
happ@@ 44
differ@@ 44
Amy 44
CEO 44
iP@@ 44
iso@@ 44
Jesus 44
jour@@ 44
engine@@ 44
Chi@@ 44
Florida 44
Econ@@ 44
ade@@ 44
neuron 44
Uganda 44
Egy@@ 44
state@@ 44
ith 44
Hans 44
Ger@@ 44
even@@ 44
regre@@ 44
like@@ 44
atar 44
open-@@ 44
Pan@@ 43
simil@@ 43
vements 43
pollu@@ 43
sac@@ 43
dle 43
tech@@ 43
poster 43
concep@@ 43
Air@@ 43
develo@@ 43
Tw@@ 43
2001 43
ordin@@ 43
weap@@ 43
evi@@ 43
Secon@@ 43
let@@ 43
mm 43
ve-@@ 43
Blue 43
Jer@@ 43
White 43
Phot@@ 43
Eng@@ 43
dio@@ 43
cript 43
fee@@ 43
ole 43
Ku@@ 43
ola 43
Dan@@ 43
ino 43
pengu@@ 43
Hea@@ 42
ysi@@ 42
ep 42
Jim 42
Win@@ 42
ki 42
AR@@ 42
Texas 42
ght 42
cot@@ 42
previ@@ 42
Sur@@ 42
signifi@@ 42
Hy@@ 42
32 42
Lau@@ 42
pound 42
pper 42
Bush 42
BC 42
itch@@ 42
ees 42
presi@@ 42
athy 42
CE@@ 42
Han@@ 42
Park 42
inning 42
W 42
Indi@@ 42
native 42
85 42
carto@@ 42
Neanderth@@ 42
Stewart 41
mea@@ 41
Jor@@ 41
Rea@@ 41
dam 41
Fo@@ 41
Pop@@ 41
Leban@@ 41
ja 41
lli@@ 41
kne@@ 41
offer@@ 41
nam 41
Afgh@@ 41
ecosyst@@ 41
destro@@ 41
civi@@ 41
loo@@ 41
turing 41
emo@@ 41
obse@@ 41
Cyrus 41
Mandela 41
f-@@ 41
dation 41
lit 41
Arthur 41
Charlie 41
ko@@ 41
chers 41
sandwich 41
astic 41
geon 41
Bol@@ 41
devil 41
Ala@@ 41
Shar@@ 41
ject 40
Hollywood 40
50@@ 40
ign@@ 40
partici@@ 40
burg 40
hydro@@ 40
ild 40
fits 40
fair@@ 40
Mah@@ 40
31 40
2050 40
etti 40
vil 40
moun@@ 40
prototy@@ 40
30,000 40
Far@@ 40
rying 40
Mex@@ 40
2,@@ 40
bin 40
Tit@@ 40
nat@@ 40
soli@@ 40
rais@@ 40
stru@@ 40
labor@@ 40
Ko@@ 40
Daniel 40
Ah@@ 40
Ai@@ 40
transfor@@ 40
Nan@@ 40
High 40
120 39
inve@@ 39
presents 39
Bel@@ 39
vice 39
won@@ 39
ila 39
atever 39
essor 39
dor@@ 39
Pic@@ 39
Tom@@ 39
mir@@ 39
selves 39
mom@@ 39
fs 39
surg@@ 39
William 39
Sim@@ 39
proble@@ 39
hai 39
Aristotle 39
nie 39
ardo 39
acc@@ 39
ereas 39
Norden 39
00 38
incre@@ 38
tom 38
rst 38
ghten@@ 38
exper@@ 38
classi@@ 38
Stephen 38
Lego 38
satel@@ 38
eet 38
700 38
sof@@ 38
abo@@ 38
spe@@ 38
shap@@ 38
Str@@ 38
Ky@@ 38
B. 38
Cri@@ 38
beauti@@ 38
ute 38
Gore 38
PT@@ 38
Ray 38
extin@@ 38
Indonesia 38
ansas 38
Watson 38
dat@@ 38
Bos@@ 38
meth@@ 37
On@@ 37
Carolina 37
burgh 37
ville 37
opera 37
adver@@ 37
Te@@ 37
L.@@ 37
Bot@@ 37
transpor@@ 37
Som@@ 37
alia 37
horri@@ 37
Zealand 37
Bir@@ 37
mili@@ 37
plat@@ 37
worl@@ 37
BA 37
intel@@ 37
distribu@@ 37
fur 37
The@@ 37
é 37
individu@@ 37
Dou@@ 37
lars 37
1960 37
E.@@ 37
fashi@@ 37
ficial 37
Nelson 37
Andrew 37
stitu@@ 37
Trea@@ 37
Chile 37
Rosling 37
aly@@ 37
low@@ 37
Jack 37
Bl@@ 37
partic@@ 37
Singapore 37
stery 37
fant@@ 36
scap@@ 36
Hol@@ 36
Lou@@ 36
pin 36
sever@@ 36
recy@@ 36
yn 36
landscap@@ 36
ree 36
2002 36
eli@@ 36
Bronx 36
zon 36
acade@@ 36
Cy@@ 36
pic 36
Mike 36
Brown 36
mach@@ 36
Abraham 36
fortunately 36
conven@@ 36
Sal@@ 36
rescu@@ 36
2012 36
Global 36
Ham@@ 36
New@@ 36
exerci@@ 36
berry 36
lev@@ 36
24@@ 36
pati@@ 36
Ver@@ 36
envi@@ 35
narra@@ 35
opini@@ 35
Shakespeare 35
Bob 35
contin@@ 35
entially 35
Pau@@ 35
37 35
symbo@@ 35
challeng@@ 35
fur@@ 35
jo 35
DA 35
MS 35
ani 35
cept 35
Joshua 35
medic@@ 35
phi@@ 35
Yemen 35
MA 35
Bla@@ 35
ques 35
vis 35
yle 35
teles@@ 35
chel 34
ron 34
ety 34
Eve 34
urs 34
justi@@ 34
Kevin 34
ousness 34
Cra@@ 34
opia 34
econ@@ 34
Sher@@ 34
cess@@ 34
fically 34
Point 34
attle 34
ouse 34
Vir@@ 34
gentle@@ 34
Colum@@ 34
ania 34
IBM 34
36 34
rent 34
Sam 34
sionate 34
electron 34
phia 34
acr@@ 34
tionary 34
Cru@@ 34
urch 34
signific@@ 34
You@@ 34
CH@@ 34
Donald 34
Tim 34
Tasmanian 34
Detroit 34
Qaeda 34
insulin 34
AM 33
ao 33
strugg@@ 33
tice 33
Berk@@ 33
ford 33
finan@@ 33
eness 33
anxi@@ 33
Sus@@ 33
1990 33
Ol@@ 33
Zimb@@ 33
volu@@ 33
Scot@@ 33
Bay 33
eth 33
year@@ 33
Leon@@ 33
tha 33
Bell 33
Jill 33
Montana 33
Gandhi 32
ky@@ 32
+ 32
roun@@ 32
easi@@ 32
thal@@ 32
Hawai@@ 32
C. 32
deter@@ 32
mas 32
mi 32
Kin@@ 32
Joseph 32
48 32
ffer 32
ades 32
55 32
Lak@@ 32
bie 32
Sky@@ 32
sual 32
BI 32
achiev@@ 32
si 32
Wright 32
epide@@ 32
illions 32
iti 32
albu@@ 32
NI@@ 32
beg@@ 32
struction 32
GG 32
El 31
ica 31
Frank@@ 31
nis 31
dol@@ 31
remark@@ 31
Sin@@ 31
Moore 31
Ang@@ 31
tane@@ 31
1999 31
hi 31
pants 31
teach@@ 31
Ever@@ 31
Haw@@ 31
orig@@ 31
lier 31
Kar@@ 31
Ethi@@ 31
Lewis 31
apa@@ 31
ingredi@@ 31
Silicon 31
ri 31
inal 31
Alexander 31
Virginia 31
tran@@ 31
urity 31
Olymp@@ 31
timately 31
Jones 31
Kenne@@ 31
doc@@ 31
96 31
politici@@ 31
SO@@ 31
missions 31
Matt 31
ouldn 31
Delhi 31
Colom@@ 31
bec@@ 31
stan 31
Bil@@ 31
ech@@ 31
BJ 31
WK 31
Teszler 31
deb@@ 30
ef@@ 30
Brooklyn 30
Franc@@ 30
Alex 30
Scott 30
oul@@ 30
tage 30
Jan@@ 30
dopamine 30
nhi@@ 30
Nig@@ 30
Uni@@ 30
Es@@ 30
dden 30
Q 30
eff@@ 30
1984 30
Ted 30
Isla@@ 30
Iceland 30
Sierra 30
Simon 30
Os@@ 30
circum@@ 30
burger 30
Parkinson 30
John@@ 30
Ken 30
communic@@ 30
micr@@ 30
pedia 30
pherom@@ 30
JH 30
Wolfram 30
Argenti@@ 30
Line 30
Gan@@ 30
DVD 29
wri@@ 29
Elizab@@ 29
34 29
ni 29
Syria 29
logo 29
qua@@ 29
Sm@@ 29
drew 29
Johnny 29
eal@@ 29
IM@@ 29
38 29
rought 29
Gil@@ 29
bir@@ 29
put@@ 29
nik 29
Muhammad 29
ood 29
aper 29
AO 29
Mac@@ 29
TEDGlobal 29
ald 29
ath@@ 29
materi@@ 29
Mag@@ 29
au 29
athan 29
Tah@@ 29
Gor@@ 29
Copenhagen 29
Tanzania 29
Ker@@ 29
HI@@ 29
Victori@@ 29
LED 29
ue 29
technologi@@ 29
Joh@@ 29
edu@@ 29
ano 29
OECD 29
Euro@@ 29
mann 29
IN@@ 29
Sarah 29
perspec@@ 28
ngton 28
stein 28
amine 28
Tal@@ 28
Moz@@ 28
ignor@@ 28
ras@@ 28
fini@@ 28
25@@ 28
scienti@@ 28
TEDx@@ 28
gian 28
58 28
deep@@ 28
ti 28
eel 28
appropri@@ 28
Jerusalem 28
Clinton 28
Coca-Cola 28
pment 28
Julia 28
Sylvia 28
Willi@@ 28
liar 28
S. 28
gether 28
ester@@ 28
apart@@ 28
sand@@ 28
Hir@@ 28
four@@ 28
2030 28
EDI 28
64 27
sional 27
cording 27
seri@@ 27
Jay 27
ress 27
RNA 27
mee@@ 27
libr@@ 27
enor@@ 27
72 27
1950 27
ester 27
Lad@@ 27
cha 27
cogni@@ 27
vide@@ 27
Newton 27
insul@@ 27
del 27
grow@@ 27
ska 27
thema@@ 27
Olympic 27
une 27
ES@@ 27
fran@@ 26
intui@@ 26
… 26
Palestine 26
mol@@ 26
dise@@ 26
bang 26
hus@@ 26
stant 26
traffi@@ 26
descri@@ 26
riage 26
exist@@ 26
sibly 26
98 26
Laden 26
Don@@ 26
watt 26
ason 26
ruption 26
mista@@ 26
3,@@ 26
tish 26
resul@@ 26
42 26
Wat@@ 26
Alpha 26
quad 26
sen 25
pregn@@ 25
um@@ 25
antic 25
adverti@@ 25
tality 25
bon 25
Del@@ 25
contra@@ 25
anies 25
itely 25
cals 25
uys 25
environ@@ 25
abstr@@ 25
adul@@ 25
olutionary 25
brilli@@ 25
Tes@@ 25
1900 25
world@@ 24
hacker 24
Scotland 24
fore 24
perf@@ 24
concen@@ 24
convin@@ 24
oud 24
explor@@ 24
Wol@@ 24
du 24
cho 24
syst@@ 24
there@@ 24
ico 24
bab@@ 24
metho@@ 24
samp@@ 24
kly 23
Goog@@ 23
explan@@ 23
happi@@ 23
wheel@@ 23
licen@@ 23
spor@@ 23
Geor@@ 23
Goo@@ 23
enever 23
Gir@@ 23
fos@@ 23
stati@@ 23
1980 23
oto 23
magaz@@ 23
licon 23
suring 23
Van 23
wonder@@ 23
trav@@ 23
wear@@ 23
DP 23
clou@@ 23
Brit@@ 22
astoni@@ 22
aga@@ 22
sensi@@ 22
Braz@@ 22
success@@ 22
30@@ 22
vid 22
ddle 22
com 22
wom@@ 22
eci@@ 22
stitute 22
dn 22
1970 22
meani@@ 22
socie@@ 22
hypo@@ 22
other@@ 22
plea@@ 22
tribu@@ 22
bel 22
hope@@ 22
Mand@@ 22
chi 22
Zi@@ 22
prev@@ 22
uro@@ 21
san 21
spirit@@ 21
conflic@@ 21
nex@@ 21
licated 21
through@@ 21
kilome@@ 21
atur@@ 21
meaning@@ 21
mark@@ 21
Paki@@ 21
child@@ 21
cate@@ 21
Cop@@ 21
metaph@@ 21
21@@ 21
hospit@@ 21
relev@@ 21
gin@@ 21
lear 21
internet 21
Every@@ 21
effici@@ 21
D. 21
fundamen@@ 21
three@@ 20
issu@@ 20
hind 20
affor@@ 20
popu@@ 20
titles 20
ris 20
intellec@@ 20
Ira@@ 20
esn 20
sibilities 20
nan 20
NA@@ 20
metap@@ 20
consum@@ 20
acity 20
ami 20
arm@@ 20
resour@@ 20
hen 20
buy@@ 20
tu 20
tia 20
Wiki@@ 20
gia 20
Sahara 19
techni@@ 19
Wester@@ 19
esome 19
ames 19
yl 19
Stan@@ 19
asp@@ 19
comfor@@ 19
notic@@ 19
obs 19
bot 19
volun@@ 19
Thu@@ 19
Sub@@ 19
ada 19
ghting 19
embar@@ 19
busin@@ 19
Fran@@ 19
sically 19
fif@@ 19
surpri@@ 19
maj@@ 19
antage 19
Cher@@ 19
uy@@ 19
them@@ 19
Ye@@ 19
ony@@ 19
bay 19
xide 19
tiz@@ 18
Carol@@ 18
enty 18
Ox@@ 18
hoa 18
birth@@ 18
ein 18
dable 18
know@@ 18
nega@@ 18
ji@@ 18
cam 18
exi@@ 18
hundre@@ 18
Jos@@ 18
atus 18
tay 18
instru@@ 18
tween 18
U.@@ 18
norm@@ 18
CD 18
Yor@@ 18
apos@@ 18
impli@@ 18
Chic@@ 18
villa@@ 18
sang 18
performan@@ 18
App@@ 18
colle@@ 18
fascin@@ 18
ED@@ 18
non 18
Ama@@ 18
Z 18
Europe@@ 18
grate@@ 18
osaur@@ 18
gar 17
ridi@@ 17
ua 17
mbers 17
kes@@ 17
CO@@ 17
som@@ 17
ested 17
zz 17
Cong@@ 17
Kim 17
vul@@ 17
rus 17
dop@@ 17
cee@@ 17
guar@@ 17
ç@@ 17
icity 17
poo@@ 17
Tas@@ 17
ox@@ 17
gori@@ 17
thous@@ 17
appli@@ 17
xi 17
tempor@@ 17
sat@@ 17
ices 17
atmos@@ 16
vity 16
gest 16
chang@@ 16
Trans@@ 16
litary 16
grou@@ 16
avail@@ 16
dit 16
ither 16
Americ@@ 16
awar@@ 16
coff@@ 16
xe 16
Gab@@ 16
exac@@ 16
insur@@ 16
practi@@ 16
ax@@ 16
Eli@@ 16
mem@@ 16
= 16
Di 16
ann@@ 15
Angel@@ 15
chic@@ 15
agre@@ 15
tremend@@ 15
valent 15
ellow 15
Chin@@ 15
Cen@@ 15
phe 15
patter@@ 15
Arab@@ 15
hic 15
bao 15
eo 15
ales 15
sandwi@@ 15
ashi@@ 15
orrow 15
effi@@ 15
ro 15
Fr@@ 15
toc@@ 15
tori@@ 14
experim@@ 14
poe@@ 14
earth@@ 14
vi 14
Rw@@ 14
Ea@@ 14
K. 14
Broo@@ 14
ext 14
beha@@ 14
– 14
% 14
lyn 14
ava@@ 14
inst 14
í@@ 14
vered 14
BM 14
Inst@@ 14
leng@@ 13
sui@@ 13
c-@@ 13
rhy@@ 13
Alex@@ 13
AD@@ 13
vices 13
Wom@@ 13
Imag@@ 13
Mus@@ 13
crete 13
lymp@@ 13
necess@@ 13
wis@@ 13
reco@@ 13
alth 13
prou@@ 13
Fl@@ 13
Bec@@ 13
un 13
vil@@ 13
desig@@ 13
TE@@ 13
Scho@@ 13
singly 13
unexp@@ 13
olds 13
amo@@ 13
mage 13
ander 13
infrastruc@@ 13
cational 13
nano 12
ria 12
erci@@ 12
iPh@@ 12
conti@@ 12
tri 12
tainment 12
agement 12
IT 12
hic@@ 12
orch@@ 12
duce 12
tron@@ 12
osoph@@ 12
techno@@ 12
aught 12
nical 12
gni@@ 12
á@@ 12
sai 12
leo 12
oxy@@ 12
utes 12
DV@@ 12
tabo@@ 12
dou@@ 12
stances 12
Vic@@ 12
MR@@ 12
pha 12
è@@ 12
Japan@@ 12
Subtitles 12
Transcript 12
hung 11
t. 11
tham 11
sophis@@ 11
sages 11
fami@@ 11
Blu@@ 11
danger@@ 11
vu@@ 11
tence 11
bicy@@ 11
@ 11
situ@@ 11
tis@@ 11
adu@@ 11
esterday 11
sels 11
proce@@ 11
chu 11
aur@@ 11
oce@@ 11
j 11
travel@@ 11
liqu@@ 10
Mic@@ 10
resident 10
effor@@ 10
vulner@@ 10
ler@@ 10
vings 10
versity 10
antibio@@ 10
conversa@@ 10
ho 10
eda 10
feed@@ 10
km 10
Gh@@ 10
beli@@ 10
ü@@ 10
1000 10
rung 10
thes 10
oppos@@ 10
chai 10
opportu@@ 10
quake 10
anks 9
ö@@ 9
Foun@@ 9
ão 9
Tex@@ 9
scul@@ 9
mong 9
olution 9
hay 9
fas@@ 9
langu@@ 9
enom@@ 9
Isra@@ 9
ón 9
Gand@@ 9
Ng@@ 9
alleng@@ 9
Abra@@ 9
Icel@@ 9
Phi@@ 9
ership 9
lang 9
--@@ 9
wai@@ 9
priv@@ 9
aniel 9
illion 8
echno@@ 8
use@@ 8
jects 8
chos@@ 8
angers 8
rapid@@ 8
acter@@ 8
quick@@ 8
centu@@ 8
fiel@@ 8
Hen@@ 8
eap 8
rem@@ 8
kim 8
rase 8
icy@@ 8
tot@@ 8
Chil@@ 8
AID@@ 8
staf@@ 8
hou@@ 8
exci@@ 8
cá@@ 8
raid 7
cience 7
dro 7
symptom@@ 7
percen@@ 7
Tim@@ 7
cac@@ 7
rand@@ 7
Ir@@ 7
Steph@@ 7
neur@@ 7
Glob@@ 7
your@@ 7
Oba@@ 7
televi@@ 7
kho@@ 7
auty 7
natur@@ 7
xin 7
lam 7
Fren@@ 7
nhu@@ 7
belie@@ 7
zza 7
treprene@@ 7
fortun@@ 7
chrom@@ 7
monstr@@ 7
ID@@ 7
goti@@ 7
ander@@ 7
ä@@ 7
tware 6
Whi@@ 6
Ban 6
Christ@@ 6
him@@ 6
gge@@ 6
Clin@@ 6
sustain@@ 6
xo@@ 6
Nel@@ 6
gaz@@ 6
kia 6
Sing@@ 6
Bron@@ 6
Kev@@ 6
ngh@@ 6
oran 6
Rich@@ 6
imer 6
matically 6
Gul@@ 6
soph@@ 6
const@@ 6
# 6
Ale@@ 6
Sao 6
isting 6
outh 6
itchen 6
chim 6
colate 6
Ara@@ 6
unex@@ 6
certain@@ 6
Tali@@ 6
Af@@ 6
Aristot@@ 6
nho@@ 6
ngu 6
year-@@ 6
á 6
) 5
nerv@@ 5
prote@@ 5
ggs 5
perfec@@ 5
wher@@ 5
án 5
camer@@ 5
ct 5
xies 5
alley 5
thai 5
Detro@@ 5
pid 5
sung 5
noon 5
Twit@@ 5
ø@@ 5
behavi@@ 5
ï@@ 5
Cali@@ 5
Face@@ 5
greenh@@ 5
dividu@@ 5
phos@@ 5
tury 5
gai 5
thi 5
hous@@ 4
damen@@ 4
อ@@ 4
qua 4
neath 4
every@@ 4
Tanz@@ 4
tex 4
trum 4
hua 4
ín 4
principl@@ 4
mend@@ 4
lead@@ 4
uary 4
absolu@@ 4
religi@@ 4
tocin 4
pass@@ 4
Theo 4
kinson 4
hung@@ 4
000 4
plom@@ 4
slow@@ 4
Thom@@ 4
PS 4
lywood 4
nay 4
zen 4
obvi@@ 4
esia 4
Ug@@ 4
Micha@@ 4
q 4
ê@@ 3
niture 3
wart 3
rastruc@@ 3
sacri@@ 3
Micros@@ 3
qui 3
fficul@@ 3
Arthu@@ 3
sibi@@ 3
dience 3
ric 3
c. 3
cently 3
celer@@ 3
thcare 3
--- 3
victi@@ 3
OE@@ 3
N. 3
embed@@ 3
â 3
 3
 3
erra 3
tai 3
lease 3
ó@@ 3
very@@ 3
Califor@@ 3
vere 3
Montan@@ 3
ngst 3
movi@@ 3
nities 3
Ngo@@ 3
nho 3
ssic 3
seum 3
xa 3
stud@@ 3
Lan 3
i-@@ 3
Lon@@ 3
nh 3
pover@@ 3
́ 3
ñ@@ 2
rom 2
ร 2
่ 2
agen@@ 2
boundar@@ 2
lui 2
( 2
amoun@@ 2
Lew@@ 2
Indon@@ 2
cipl@@ 2
Hy 2
happen@@ 2
Brook@@ 2
É@@ 2
à 2
eah 2
NA 2
sau 2
Shakespe@@ 2
atest 2
r. 2
.. 2
YouTu@@ 2
ecos@@ 2
relation@@ 2
Ai 2
frame@@ 2
ā@@ 2
oft 2
_ 2
acces@@ 2
truc@@ 2
Bei@@ 2
piec@@ 2
agen 2
chia 2
rones 2
Á@@ 2
schi@@ 2
spiring 2
£ 2
tung 2
gorith@@ 2
olved 2
frien@@ 2
anderth@@ 2
degre@@ 2
è 2
sco 2
Franci@@ 2
gry 2
ë 2
compon@@ 1
ย@@ 1
ย 1
ceed 1
vai 1
Tin 1
dao 1
proper@@ 1
Amer@@ 1
whel@@ 1
kg 1
ía 1
Tasmani@@ 1
mately 1
ē 1
examp@@ 1
chán 1
olum@@ 1
là 1
stac@@ 1
trong 1
friger@@ 1
vehic@@ 1
ë@@ 1
redi@@ 1
* 1
ggest 1
bong 1
zoph@@ 1
intellig@@ 1
tropy 1
incredi@@ 1
lai 1
€ 1
Singap@@ 1
Einst@@ 1
Arg@@ 1
ciple 1
nghi 1
tuy 1
trung 1
Zeal@@ 1
送@@ 1
你@@ 1
葱 1
stinc@@ 1
Ă@@ 1
Ť 1
ticated 1
Syl@@ 1
v.@@ 1
phi 1
â@@ 1
Å@@ 1
ø 1
¡ 1
achi@@ 1
Č@@ 1
robot@@ 1
y-- 1
