,
.
the
to
of
là
a
and
tôi
một
có
và
that
I
in
&quot;
những
chúng
của
is
you
it
không
ta
&apos;s
we
người
đó
bạn
trong
thể
And
?
này
đã
các
được
this
với
--
cho
sự
ra
Và
làm
ở
nó
mà
để
was
về
sẽ
như
for
on
are
:
điều
have
thế
they
with
khi
Tôi
nói
can
họ
do
đến
So
&apos;t
what
phải
about
rằng
vào
đang
gì
việc
từ
be
lại
at
as
thấy
an
rất
cách
hơn
nhiều
all
not
thực
cả
đầu
my
đây
so
học
con
khác
&apos;re
one
there
people
công
trên
It
cái
like
vì
nào
biết
chỉ
from
Chúng
năm
or
thứ
nghĩ
đi
thành
but
our
cũng
just
me
nhà
The
số
bị
quan
We
muốn
But
these
if
very
mình
out
1
nhưng
nhất
Nhưng
by
tạo
động
them
chính
giới
nên
more
vậy
up
when
going
know
because
hình
us
hiện
giờ
had
sống
he
tại
nhận
nếu
mọi
your
how
their
think
who
ông
see
cuộc
were
cần
hay
which
thì
would
really
ấy
đề
tự
tất
get
bởi
anh
tới
theo
bắt
-@@
còn
nhìn
lớn
ý
re@@
cùng
bằng
cảm
&apos;ve
tin
tế
&apos;m
sau
dụng
thật
time
b@@
way
lên
câu
bản
world
thời
sao
chuyện
You
then
trở
here
qua
ngày
nhân
This
S@@
cơ
bộ
sinh
has
some
năng
actually
phát
trước
nước
đổi
into
don
toàn
phần
gia
nơi
s@@
t@@
thông
tìm
years
thay
nhau
mới
vấn
định
Now
d@@
Nó
things
will
now
trường
other
nhiên
tính
Đây
sử
trình
hệ
tốt
tưởng
where
kết
want
They
go
vật
could
ảnh
hàng
lý
make
hỏi
Bạn
máy
;
been
ai
hợp
Đó
than
mặt
tiếp
hành
said
l@@
kinh
gian
nữa
thức
hội
thiết
rồi
xem
M@@
liệu
trọng
C@@
something
cô
hoá
thích
r@@
vị
no
đồng
giải
much
T@@
m@@
hai
two
trẻ
right
lượng
first
bất
thing
thường
those
g@@
vài
in@@
đều
ing
ch@@
v@@
also
Một
tiên
B@@
đối
sáng
say
hiểu
quá
life
tâm
nay
loại
giống
c@@
Vì
lần
work
bao
cứu
back
bệnh
look
In
thống
little
got
she
viên
his
h@@
a@@
That
A@@
nghệ
nghĩa
điểm
gọi
tr@@
Có
need
nhỏ
only
Vậy
over
most
es
What
đưa
even
tương
hoàn
độ
n@@
nghiệm
quả
ed
tác
đường
p@@
k@@
vẫn
many
take
em
lot
Họ
xảy
chiếc
li@@
y
thuật
dùng
biệt
D@@
did
new
đại
hoặc
able
al
ăn
o
bên
2
từng
L@@
dân
triển
lúc
i
chuyển
diễn
th@@
Điều
her
around
e@@
Những
quyết
trị
good
nghe
cao
H@@
o@@
kind
different
tuyệt
day
mỗi
There
P@@
khoảng
i@@
cầu
e
Nếu
y@@
lực
chất
kế
phụ
ting
through
10
ơn
en@@
s
di@@
lời
giáo
&apos;
un@@
down
R@@
giúp
đất
ng@@
cố
N@@
ti@@
trung
K@@
use
bảo
giá
t
nữ
come
tiến
hết
phòng
&apos;ll
tình
nghiên
chưa
xuất
xe
mang
same
liên
Well
phân
every
bài
Anh
tranh
đơn
being
não
truyền
tập
ri@@
u@@
tuổi
đúng
phương
He
điện
bình
er
đặt
tay
tượng
-
biến
Khi
giữa
yêu
If
tiền
sản
tiếng
x@@
doing
its
de@@
hãy
m
3
ngay
khả
trả
E@@
khoa
Không
ate
thú
any
lấy
put
ty
!
ted
ít
gần
xã
called
hoạt
chiến
bỏ
cá
đáng
sách
nh@@
Trong
percent
phẩm
thân
pháp
hiệu
talk
made
cuối
âm
ph@@
three
cứ
khó
đời
&apos;d
why
chơi
chủ
dụ
dự
Các
p
mất
sức
minh
A
an@@
kể
F@@
Mỹ
ly
mạnh
G@@
...
well
ar@@
nghiệp
ngoài
đồ
dẫn
tell
bé
year
ated
tài
lập
tinh
own
chí
đấy
loài
đ@@
kỳ
bức
lo@@
f@@
ts
luôn
change
dựng
xây
fact
trí
find
tiêu
tên
vô
cộng
văn
today
mô
chứng
án
may
di
let
didn
V@@
ứng
ba
tử
thu
hướng
20
nhạc
idea
phố
brain
O@@
thử
viết
Hãy
or@@
chức
nguyên
kiến
đâu
quốc
human
started
giả
vời
Thank
chọn
should
quyền
giản
đặc
great
man
chế
went
vi
ers
end
chết
last
tư
bào
al@@
mạng
mi@@
cấp
big
suy
bà
triệu
after
tăng
st@@
khí
I@@
thần
nền
important
đạo
đứa
thought
before
might
phá
lẽ
give
w@@
khỏi
sĩ
course
màu
story
problem
đánh
as@@
off
el@@
gặp
better
ds
still
tháng
Thế
dưới
thị
show
khu
bit
never
it@@
chút
xuống
part
vụ
mẹ
each
gắng
er@@
chia
si@@
ation
n
khá
Th@@
phép
le
nhóm
quanh
mở
dịch
came
%
bay
khiến
together
tham
vực
xác
dữ
less
When
Bây
k
next
thêm
con@@
la@@
trò
another
mức
thuyết
start
Ch@@
place
sh@@
qu@@
quay
nhanh
ago
system
gi@@
vi@@
at@@
him
dạng
tổ
gây
rõ
đàn
5
cực
between
Đ@@
vọng
cụ
age
30
4
nguồn
few
vùng
cảnh
does
u
bây
used
la
ro@@
love
báo
đẹp
tục
le@@
am
dù
co@@
red
How
giác
xa
long
chắc
too
sát
càng
dễ
to@@
again
question
đủ
cây
data
ví
se@@
trang
phía
nhớ
ever
phim
biểu
hôm
hưởng
TED
New
đoạn
found
try
duy
50
mean
women
chẳng
vũ
&#91;
kiểm
trái
&#93;
example
be@@
thương
ding
on@@
ab@@
Quốc
water
Ông
live
dài
done
W@@
vòng
se
ter
ex@@
luận
Because
phản
ngữ
en
understand
tions
point
đôi
looking
ni@@
ad@@
Trung
wanted
đầy
g
doesn
children
os@@
kì
lợi
de
technology
kia
dục
real
J@@
st
tion
giảm
thậm
l
school
thuốc
always
ac@@
believe
vừa
kiếm
call
chân
tích
chú
working
trăm
ánh
person
money
thôi
thư
video
đình
ded
giao
hạn
bước
away
lai
four
Người
sp@@
sort
.@@
dis@@
ous
sâu
Tại
môi
U@@
toán
100
help
whole
old
trải
create
trời
tồn
ve
es@@
diện
z@@
information
feel
kids
rộng
phục
ment
Bởi
giữ
trying
thanh
dành
nối
light
ap@@
đoán
địa
sai
lòng
country
chi
thuộc
riêng
using
su@@
bi@@
tạp
sợ
pro@@
power
mục
mắt
đứng
cu@@
dạy
nổi
op@@
phủ
me@@
đạt
vệ
vẻ
d
6
My
means
thí
side
thúc
kỹ
căn
bu@@
luật
ling
Internet
food
sẻ
ta@@
tối
body
kh@@
j@@
xung
lệ
million
ma@@
mẫu
h
men
ô
lịch
da
become
son
x
home
bàn
đọc
maybe
king
lớp
thinking
Cảm
les
led
kỷ
took
yếu
am@@
khắp
đô
ent
space
One
trụ
everything
trông
vui
quy
tiết
khoẻ
chương
chạy
ngồi
five
says
room
Do
om@@
bố
future
quite
gái
cậu
phút
gu@@
cuốn
il@@
mối
making
buổi
comes
trợ
au@@
social
best
number
hầu
chắn
enough
sắc
suốt
second
getting
lives
mu@@
kiện
small
ẩn
biển
ant
ra@@
bo@@
trúc
lo
ol@@
Why
ngôn
She
tra
design
chung
ích
ag@@
energy
mua
doanh
These
der
kiểu
Tất
Vâng
Phi
sư
ways
sense
cửa
times
7
áp
vận
ask
c
ch
tu@@
15
khám
cánh
ngạc
xét
xúc
sở
left
ir@@
lâu
ràng
fi@@
happened
thoại
tuần
bán
countries
/
pe@@
tỉ
tic
probably
for@@
hiểm
hồi
set
ver@@
ca@@
without
makes
dollars
ne@@
case
1@@
ks
talking
ves
cấu
nhiệm
Tr@@
told
ine
Let
ce
phức
thiên
kích
science
pi@@
build
cung
experience
nằm
chuyên
chụp
nhập
4@@
learn
ha@@
Ở
cells
pretty
ke
ance
ung
ot@@
bóng
moment
while
ans
ngôi
băng
ter@@
thái
Sau
such
interesting
cạnh
across
kẻ
York
dy
happen
pre@@
saw
phí
als
9
simple
For
city
độc
viện
hạnh
hữu
car@@
ge@@
pri@@
building
hoà
ity
living
ngành
chứ
chỗ
inter@@
book
mo@@
asked
per@@
trưởng
coming
sure
Ma@@
Here
khủng
te
vẽ
thập
half
dung
hand
đa
hard
is@@
stuff
family
ally
anything
else
Xin
inside
ho@@
chuẩn
40
form
bác
quý
ghi
happens
thiếu
phúc
goes
Cô
Thật
chịu
xin
du@@
8
hề
process
later
ec@@
hoạ
xanh
lắng
land
ong
top
tấm
As
reason
th
care
seen
art
ins
ability
sẵn
niệm
Nên
po@@
hi@@
tức
phạm
days
No
tệ
nhiêu
ban
having
Sự
khăn
ma
tái
đau
trai
yet
b
problems
no@@
sắp
Cái
hơi
mar@@
Y@@
Giờ
mặc
lạ
sa@@
music
Thực
chống
ru@@
&amp;
mong
lạc
wrong
health
tri@@
business
thất
man@@
single
play
lu@@
dựa
cải
châu
đóng
ic
words
someone
5@@
myself
xử
mind
bad
tim
Như
looked
Al@@
car
young
7@@
high
lựa
ước
trực
saying
often
project
move
đội
far
bánh
ur@@
computer
3@@
within
tổng
line
All
ideas
hậu
game
ses
whether
billion
possible
nội
khắc
im@@
picture
public
vượt
mật
cha
tỷ
min@@
tầm
chăm
12
pa@@
ca
dần
xấu
gửi
child
hộ
toà
gets
so@@
once
Ý
Làm
nothing
language
community
ations
answer
true
Africa
hứng
thiện
hạt
6@@
both
global
re
robot
control
matter
Okay
Để
run
ones
read
nguy
Re@@
tive
face
keep
X@@
danh
lưu
Ấn
almost
ates
cr@@
trạng
nhiệt
com@@
imagine
sang
hy
lãnh
ảo
hope
đột
works
chiều
the@@
over@@
hu@@
ness
dầu
heard
niềm
Earth
built
basically
per
est
tội
ngoại
trans@@
ps
guy
nạn
mon@@
nghèo
Ph@@
night
cận
history
looks
stories
piece
chữa
group
res
word
kính
already
ating
decided
chi@@
job
Mar@@
đấu
Châu
der@@
dấu
đẩy
Độ
remember
though
nỗi
research
United
bring
8@@
amazing
cổ
six
taking
ons
kéo
ors
hát
gh@@
thách
sion
đen
tố
sti@@
—
couple
khách
beautiful
tắc
thủ
wasn
Oh
ngược
order
ments
months
z
imp@@
education
giấy
ống
et
nuôi
under
ry
An@@
minutes
friends
government
open
phi
25
became
head
bại
share
woman
until
heart
Su@@
ci@@
tra@@
Tây
des
ary
sub@@
par@@
wi@@
chữ
quản
society
mb@@
universe
C
nature
everybody
ful
Google
soát
lỗi
nửa
el
do@@
ou@@
lĩnh
learned
mắc
tiện
hoạch
themselves
mơ
ourselves
created
ngủ
gồm
nhiễm
ms
turn
China
exactly
tốc
9@@
States
dương
sts
khiển
tả
lí
sóc
cắt
huge
har@@
Gi@@
sing
ence
nghi
Mọi
hại
completely
giết
gen
places
thẳng
study
happening
80
cancer
Con
khối
60
quen
bày
dây
knew
quân
tàu
American
front
đông
lưới
cử
planet
level
hours
chiếu
đích
questions
na@@
đức
state
ler
somebody
um
áo
thấp
shows
thi
dòng
đá
hear
Kh@@
Chỉ
w
ul@@
bầu
lái
ten@@
isn
kinds
te@@
niên
ngờ
đêm
name
house
itself
cười
model
environment
đổ
nhờ
stop
phóng
dàng
khai
mp@@
difference
ice
chấp
sàng
against
xếp
cư
rối
ngắn
bốn
he@@
gốc
mê
everyone
ea@@
col@@
tận
ws
phong
ster
gấp
med
ties
worked
war
đem
nông
r
Then
others
den@@
đỡ
Với
past
DNA
since
Ar@@
giây
Qu@@
bạo
sân
lắm
view
hoa
students
kỉ
In@@
sta@@
ce@@
ving
India
web
gave
fe@@
vai
trách
pu@@
2@@
gắn
sometimes
d-@@
ck
company
ator
cân
ob@@
cáo
sound
t-@@
ches
Rồi
hồ
entire
rather
gra@@
ic@@
table
must
mother
won
ngàn
đợi
air
America
tôn
changed
da@@
phẫu
nu@@
couldn
thousands
large
sho@@
hài
ze
ba@@
turns
news
God
particular
xuyên
ay
based
key
phone
disease
nhảy
ls
200
chim
nam
chuyến
dừng
bí
outside
early
figure
siêu
ấn
powerful
and@@
happy
áng
thụ
11
learning
chị
century
De@@
ve@@
mã
takes
culture
during
kĩ
pos@@
population
ả
màn
ali@@
free
ký
lao
ga@@
tation
ang
giai
low
nghị
đảm
systems
Di@@
lan
et@@
tầng
gen@@
species
ổn
HIV
tải
hấp
spend
ff@@
test
instead
ey
third
sh
men@@
phổ
machine
guys
id
least
ngs
Z@@
ats
0s
19@@
lots
U.S.
yourself
natural
Ro@@
khởi
B
nhắc
ngăn
Mo@@
cell
Or
animals
rừng
OK
size
realized
economic
đo
fu@@
easy
chỉnh
tù
dec@@
ver
ton
oil
ạ
self-@@
along
At
given
thải
góc
khái
team
song
Tuy
hút
needed
ki@@
hộp
nghiêm
behind
dly
walk
war@@
Được
món
óc
Nam
sive
grow
luyện
difficult
simply
0@@
ồn
parents
Âu
ari@@
needs
khuôn
môn
felt
friend
à
giàu
tín
Nh@@
can@@
Car@@
image
chuột
cập
lá
ủng
ked
media
ose
Còn
thơ
D
Ví
18
father
cor@@
finally
lation
leave
certain
ori@@
sted
close
ge
companies
TV
già
coi
ngân
paper
under@@
ved
moving
ng
đỏ
ming
liệt
đám
eyes
bri@@
feet
act
thắng
phận
tuyến
taken
ying
go@@
turned
500
G
tấn
18@@
zing
tai
trao
area
R
trừ
ters
na
rest
nh
Hoa
political
value
black
parts
full
wing
met
Chúa
huỷ
đảo
People
we@@
inf@@
nặng
chứa
Cho
Trái
seeing
90
TED@@
dậy
hẳn
ents
cannot
Câu
mềm
spent
perhaps
ser@@
vân
stage
eat
nóng
enti@@
mấy
local
Mi@@
phù
field
middle
hands
To@@
David
ning
mạch
cháu
zed
Yeah
Bắc
cal@@
quyển
chóng
mùa
mẽ
điển
buộc
thiệu
sóng
Hiện
trùng
dưỡng
scale
seven
ia
máu
amount
sed
70
out@@
cost
$
growth
hạ
uống
linh
longer
knowledge
quickly
cities
ously
ad
khán
.000
began
wonderful
ev@@
thảo
rời
beginning
books
hãi
chủng
tly
death
Me@@
Công
els
Ta
up@@
dõi
điên
ương
ner
week
str@@
Is
speak
ley
Từ
tảng
tồi
behavior
terms
sơ
lộ
To
born
Nhà
loạn
cũ
complex
die
chờ
đáp
Kỳ
lost
eight
buồn
lầm
f
S
vững
ơi
cre@@
ces
ck@@
known
step
lan@@
John
ground
ear@@
Hu@@
ke@@
sửa
Liệu
mắn
write
tw@@
giving
Bu@@
Ai
góp
ác
ốt
ker
Afghanistan
common
Co@@
ens
ching
ned
thưởng
ining
khổng
Rất
tránh
cal
wa@@
hold
Lu@@
lồ
tường
Vào
images
Yes
carbon
du
miễn
khoản
super@@
fly
tried
camera
Thứ
ard
either
ss
ders
Our
Some
deal
Mỗi
đói
xu
chàng
đèn
tional
ne
solution
lạnh
Li@@
ite
tan
ưu
morning
199@@
ân
tổn
mái
tho@@
bang
bảng
So@@
personal
ics
box
action
cơn
sur@@
market
average
forward
lẫn
ined
mảnh
trắng
weeks
pay
lab
attention
ang@@
đỉnh
tộc
ther
fil@@
sitting
reality
ber@@
20@@
green
diệu
rút
Con@@
solve
changes
núi
tờ
Đúng
growing
feeling
ys
telling
force
wouldn
comp@@
online
Ngày
fear
whatever
phỏng
tiểu
nhu
Đông
đào
Be@@
opportunity
developed
ani@@
interested
economy
ức
brought
oo@@
ators
buy
kim
tốn
id@@
gone
Just
On
giọng
Bà
late
ju@@
La@@
àn
board
ies
English
girl
Se@@
lin@@
hi
trận
hảo
Si@@
quên
giỏi
watch
fla@@
ill
physical
voice
cri@@
bề
rơi
lar
ship
Ng@@
trì
quảng
trồng
ee@@
tools
alone
sions
seems
ôi
mãi
film
animal
10@@
changing
Hồi
Na@@
chạm
ality
writing
prot@@
poor
ổ
13
br@@
14
cầm
structure
realize
issue
khuẩn
bật
ám
Ho@@
individual
stand
aren
vốn
Chính
bền
creating
ns
asking
micro@@
ven@@
stri@@
developing
đương
nghìn
blo@@
pe
Sh@@
od@@
phấn
sánh
bio@@
numbers
short
material
16
ring
ôn
tiềm
êu
hôn
wrote
vo@@
mer@@
running
Can
fast
v
chấm
lương
produce
challenge
scientists
playing
tically
ran@@
chiếm
cỡ
Năm
khoá
incredible
ốc
Đại
hoảng
mời
understanding
access
nắm
khích
climate
mental
starting
nghỉ
hiển
humans
os
vàng
ngừng
phối
bữa
audience
fied
save
World
girls
fully
Right
focus
L
hào
lửa
E
ar
Le@@
Facebook
điệu
làng
ấm
Ra@@
generation
lt
ut
Chinese
ko
đừng
thịt
vỡ
xương
bed
fun
ines
ther@@
millions
sex
ghế
vĩ
âu
vers
quần
lic@@
tách
hỗ
knows
clear
thi@@
im
nổ
ục
chuỗi
literally
acy
risk
dường
forms
ick
rate
vợ
ối
chảy
khẩu
oh
biên
Bo@@
anyone
product
cli@@
ended
blue
fish
đằng
kịch
sót
areas
ren@@
clu@@
tal@@
dra@@
seem
us@@
che
Trên
program
ist
tal
gives
games
àng
ế
innovation
baby
normal
network
ack@@
000
sớm
thoát
ăng
ốn
loạt
y-@@
Iran
tics
gió
ine@@
died
chậm
chồng
tô
tru@@
discovered
ngly
rec@@
kid
ble
protein
ạo
ect
South
cool
thank
Ba@@
type
Trước
hundreds
patient
patients
experiment
Mc@@
California
T
mer
tắt
sạch
tàn
nice
kho@@
By
result
cut
virus
giấc
Ồ
showed
teach
il
cars
Je@@
ách
Vấn
air@@
theory
Not
cho@@
modern
dead
bè
lặp
nghề
ven
ical
St@@
M
gợi
suất
ow@@
0,000
kê
ots
white
blood
sha@@
tion@@
bar@@
eye
bottom
dĩ
khổ
khứ
quỹ
yes
ism
okay
especially
pictures
sal@@
ep@@
ép
London
allow
gar@@
phê
Cách
sto@@
movement
chu@@
materials
ig@@
star@@
center
bi
development
lối
trưng
lỗ
incredibly
impact
ir
potential
surface
relationship
success
ngại
ạt
Po@@
teachers
talked
wor@@
connected
explain
Chris
support
sông
túi
nhé
tán
ged
300
industry
trại
O
ut@@
den
website
quang
trữ
ects
onto
ell
Har@@
pan@@
ball
meet
sk@@
present
Cám
chó
nguyện
soon
tiny
Ri@@
ack
hor@@
Ju@@
cur@@
resources
involved
ory
hea@@
absolutely
ơ
ắn
viễn
ably
sters
chance
haven
tical
Nói
thước
đăng
dặm
groups
eating
stress
ocean
cent
hit
class
issues
AIDS
ền
kiệm
worth
ster@@
Israel
my@@
law
cờ
send
sounds
pl@@
uni@@
lose
gener@@
1.@@
ô@@
ội
shape
ages
ear
Com@@
Mu@@
begin
Đầu
ently
deep
Sa@@
sleep
đuổi
Việc
kháng
sỹ
sen@@
available
strong
cy@@
happiness
bia
17
í
nâng
kes
schools
Europe
cen@@
our@@
beyond
designed
Hay
bơi
message
color
technologies
Iraq
nhắn
kém
em@@
democracy
journey
position
24
major
ghép
hour
situation
miles
thăm
vision
flo@@
cra@@
slide
device
cà
phiên
pic@@
choice
fa@@
road
va
rules
West
lived
át
sốt
recently
Ne@@
violence
projects
ban@@
Bill
hundred
rẻ
khoảnh
thở
thảm
ths
tor
truth
fer@@
lar@@
cause
wish
Ti@@
Ber@@
quality
street
walking
P
K
nhật
lặng
ồng
ào
vỏ
Where
shed
ward
door
ready
spread
bur@@
map
ative
nỗ
vết
Đất
thoả
tives
cer@@
e-@@
digital
individuals
bọn
tàng
national
list
pas@@
ste@@
approach
tells
becomes
likely
Bar@@
dri@@
hoang
minute
3D
stay
che@@
predic@@
ture
Don
break
putting
ants
memory
office
sáu
Là
xoay
cou@@
code
boy
Ki@@
creative
guess
email
Brazil
dic@@
gr@@
Nhật
lọc
hùng
ần
-year-old
bigger
month
din@@
char@@
tròn
trống
Ni@@
gt
cru@@
fight
inten@@
First
ft
Mon@@
bờ
điệp
ited
Wi@@
dark
bal@@
ess
East
Maybe
,@@
town
coun@@
exp@@
bodies
é
Mexico
nhẹ
ane
similar
sel@@
After
reasons
tend
ched
o-@@
ưa
ùng
Every
effect
thu@@
ene@@
rich
medical
ray
Of
fall
đẳng
teacher
meaning
evidence
pla@@
results
smart
ớ
lục
hổ
ngẫu
mùi
Lúc
voi
pain
special
cop@@
sm@@
dro@@
dd@@
Bản
ately
mine
towards
everywhere
ered
lea@@
đam
ồ
bò
doạ
favorite
crazy
drive
Bộ
ập
lành
lính
lines
tle
scientific
,000
mat@@
sea
tic@@
With
taught
mp
starts
develop
mission
basic
Canada
cat@@
đựng
bs
software
sent
certainly
eri@@
fo@@
bul@@
income
thuận
row
computers
measure
Lo@@
biggest
examples
ber
tri
Theo
thừa
thác
moral
serve
dr@@
zation
leaders
21
Ngay
thuỷ
interest
perfect
Fi@@
thai
đoàn
rác
cấy
back@@
moved
wait
obviously
sit
sa
ore
drug
ana
197@@
GDP
ã
Hai
alized
dream
particularly
ny
Gu@@
Cuối
trích
showing
198@@
van
faster
H
chặt
non-@@
oun@@
safe
loved
communities
nhuận
positive
&apos;@@
add
fire
lead
ư
họp
giảng
thang
choose
waste
plan
listen
high-@@
ner@@
emp@@
Vi@@
ol
Đức
đạp
đe
cultural
ess@@
general
response
amp
Ha@@
Kenya
lược
Nào
miếng
ái
nhựa
lãng
San
indeed
Nor@@
Are
decisions
Cậu
ời
region
student
cks
tes
flu@@
á
ì
Đừng
lắp
minds
ran
dre@@
follow
totally
further
source
ort
oc@@
several
cãi
khấu
Cuộc
chặn
cul@@
tan@@
reach
pen@@
peace
tool
drugs
Even
om
Mà
giám
brains
nine
oper@@
worse
Da@@
chào
ị
ạn
tật
ầm
watching
uses
illi@@
cap@@
ences
ping
ency
Ta@@
mừng
ngoái
ỉ
Hoặc
lễ
ss@@
content
ngang
yên
đòi
mù
Ja@@
dance
nobody
1,@@
Look
rou@@
No@@
training
hy@@
cam
diệt
huống
ecting
named
wants
respon@@
Wal@@
jobs
400
cản
ê
thao
thận
Cũng
mại
pur@@
cl@@
grew
race
North
shown
trust
bl@@
Wh@@
Chẳng
hương
mây
largest
activity
Who
allowed
bra@@
emer@@
ill@@
sổ
ờ
ten
ically
s-@@
wife
radio
mes
screen
ngu@@
pros@@
mét
đống
studies
meant
wel@@
standing
math
Twitter
kill
sses
2000
blog
including
anti@@
trees
sun
thấu
sợi
đùa
Thay
úng
chép
sky
continue
hand@@
suddenly
tor@@
notice
anybody
Most
objects
fine
village
Einstein
tràn
vong
points
est@@
expect
sign
one-@@
Ex@@
specific
squ@@
wind
lies
Col@@
gan
ới
cặp
vú
ick@@
products
ng-@@
buildings
engineering
N
cứng
Em
thù
cám
êm
wer
ei@@
traditional
crisis
Par@@
version
eventually
movie
ges
Americans
mập
ại
tuyên
tỏ
nhằm
cát
context
plant
among
ey@@
Pro@@
Q@@
lights
ấp
phiếu
Nhiều
Đối
raise
fy
conditions
wn
period
demo@@
win@@
cover
truly
compassion
search
ites
expensive
finding
plants
chán
bom
cher
poverty
killed
wall
stor@@
ome
hospital
connect
win
que
ll
revolution
pick
khía
mực
nhịp
ật
súng
cro@@
ners
allows
anymore
ash
mass
far@@
cases
sion@@
Dù
bối
trào
sụp
ele@@
ê@@
Today
conflict
extremely
George
solutions
conversation
tors
off@@
hiếm
ADN
ạc
tiêm
ừng
models
Washington
aw@@
non@@
excited
Tur@@
series
fer
45
robots
politics
gas
artist
tia
tá
kêu
bắn
provide
Bi@@
tro@@
alive
a-@@
skin
service
cation
solar
sm
Jo@@
ầy
ngọn
hà
seconds
reading
iled
foot
fin@@
sorts
kept
lower
ery
ends
vir@@
wards
rise
hoàng
lừa
Mẹ
khung
impro@@
wit@@
exciting
ely
En@@
page
freedom
sell
Which
deli@@
continu@@
listening
sy@@
skills
triết
móc
dối
ất
liền
stic
bro@@
her@@
extraordinary
gre@@
cing
hole
hot
role
evolution
contr@@
societies
ha
Paul
machines
Bằng
Pháp
béo
gỗ
successful
Charles
goal
cel@@
cla@@
Về
cục
côn
mic
pattern
disp@@
2008
University
pp@@
don@@
publi@@
đua
mưa
faces
ome@@
bas@@
production
plan@@
college
families
CO2
self
Phải
thờ
hè
thầy
ssed
pr@@
security
dad
familiar
cally
Or@@
Imagine
co
Liên
khảo
ghts
ao
ging
kí
mạc
ộc
ấu
thoải
căng
Thái
đập
bậc
hối
vari@@
lity
grand@@
impossible
press
anywhere
neurons
refl@@
pin
higher
aware
effective
ky
bunch
Pa@@
ắt
Phần
ngưỡng
nấm
pieces
gs
main
cking
see@@
ro
chốt
lũ
written
weight
above
val@@
ney
fore@@
usually
mini@@
por@@
types
pping
famous
City
lim@@
magic
chối
critical
Per@@
19
ot
shing
huấn
ah
talks
ath
iling
bon@@
somewhere
supposed
site
active
doctors
app@@
rượu
ils
MIT
va@@
actual
larger
tex@@
funny
nal
recognize
upon
Like
doctor
patterns
táo
thuyền
ọt
ghét
nhũng
ây
trầm
hỗn
ệ
mỏ
greater
speed
ed@@
object
consider
connection
teaching
fac@@
current
psycho@@
treatment
Your
becoming
jo@@
Sẽ
Ba
vâng
massive
organization
le-@@
perspective
travel
mis@@
ace
Ste@@
ories
Cam@@
era
ering
rắc
ô-@@
mì
thousand
Ge@@
aging
multi@@
ound
Those
mor@@
rights
hang
bảy
150
Go@@
store
somehow
train
Talk
visual
khuyến
biện
molecules
inv@@
fra@@
nger
ngo@@
pul@@
ham
Thuỵ
lab@@
spec@@
legs
date
concept
ff
beauty
Big
range
ya
cháy
tỉnh
đắt
nút
atch
yeah
esti@@
gene
Du@@
Hôm
ngón
ỏ
shared
Western
human@@
two-@@
cos@@
fl@@
smaller
financial
genes
mom
to-@@
hồn
phán
hắn
truy
forest
older
ate@@
healthy
African
Thomas
plastic
pped
complicated
Tu@@
ài
xứng
thọ
cỏ
15@@
shot
explo@@
increase
bacteria
dollar
ef
fundamental
cian
costs
aci@@
cep@@
organizations
speci@@
babies
Michael
plu@@
mạo
ỗi
ầu
út
remarkable
levels
decades
humanity
progress
female
2010
ka
Sao
thiểu
ồi
Nhìn
túc
ực
Ả
ala@@
dangerous
policy
arm
beings
shi@@
temp@@
lands
forth
essentially
thả
mũi
ành
gọn
săn
Ru@@
path
75
pit@@
tur@@
please
khát
trứng
xoá
giận
tim@@
medi@@
arti@@
pol@@
party
record
lit@@
ide@@
protect
equ@@
gl@@
cha@@
practice
ột
ẩm
ói
bông
dinh
cỗ
cụt
chan@@
immediately
track
sil@@
lay
mobile
ank
mal@@
mit@@
genetic
cros@@
rap@@
throughout
surgery
simp@@
Adam
Bro@@
GPS
chai
mai
ẻ
thạch
Mặt
Hầu
khiếp
wonder
ony
Au@@
foun@@
biology
creativity
architecture
performance
bor@@
dness
function
For@@
electricity
35
thuê
dày
thiệp
ướng
rủi
pull
ases
acting
surprising
speaking
evolved
ish
fantastic
prof@@
thern
draw
police
2.@@
related
zes
xong
iết
nấu
đắn
From
daughter
tain
decision
exist
ple@@
lộn
hước
đốc
binh
Đã
cột
thánh
touch
following
private
amp@@
10,000
sustainable
citizens
free@@
treat
gotten
television
mò
giành
mộ
bãi
bột
clearly
serious
waiting
earlier
ection
soci@@
physics
tures
zz@@
Another
leo
đốt
ngũ
tóc
truyện
len
challenges
thetic
analy@@
walked
understood
cold
services
0-@@
logists
tree
ama@@
ạp
đài
ưng
iên
ặt
chẩn
xưa
phó
lating
pass
are@@
regu@@
down@@
career
enter@@
fit
final
international
za
ina
Haiti
dọc
thuần
ệt
răng
circu@@
emotional
medicine
bes
improve
helped
net
of@@
Nigeria
unique
ger
strange
assu@@
Cu@@
chu
tụ
huyết
rưỡi
bạc
bits
Two
lin
2,000
Un@@
environmental
focused
direction
0
Los
price
..
mát
miền
chừng
ú
military
whose
slightly
willing
invented
himself
sat
ology
eria
Do@@
dep@@
tặng
gương
đĩa
Lý
head@@
ga
birth
acts
Pal@@
complete
posed
cations
intelligence
obser@@
choices
experiments
therefore
ced
James
Al
hiến
iến
xâm
ném
nhấn
ịch
stream
dog
berg
rit@@
except
ances
by@@
Lin@@
ama
gay
blind
tha
cốt
ét
vườn
Đôi
dị
subject
values
useful
Y
decide
ars
weren
dying
motiv@@
directly
recent
creates
square
driving
Richard
cá@@
êng
nhỉ
khóc
trộn
mos@@
ands
syn@@
birds
near
National
Pakistan
mag@@
xạ
ngài
ắp
quê
comfortable
Harvard
ort@@
round
task
person@@
Some@@
re-@@
set@@
networks
summer
sharing
clos@@
sli@@
obvious
An
xi@@
complexity
cẩn
tuỳ
meeting
od
etc
nation
ty@@
flow
spending
yst@@
vaccine
His
pes
stars
Bal@@
PM
ộ
dính
quar@@
eth@@
dent
inspired
secret
qui@@
lack
prison
196@@
Dr.
instance
nuclear
station
li
miệng
ạng
rào
mber
flying
ai@@
members
actions
nor@@
popular
event
chemical
boys
Robert
answers
temperature
tạm
bắc
huy
thẩm
ears
lie
fron@@
paid
survive
fri@@
bom@@
bla@@
coffee
ure
wr@@
ahead
fol@@
law@@
differences
diversity
xo@@
đớn
đón
miêu
òng
Cơ
decade
glass
oth
tivity
War
capacity
wood
det@@
slow
reti@@
hẹn
gà
lỏng
ôm
ốm
Giáo
mẩu
shares
clean
explore
Dan
dge
speech
vit@@
2007
greatest
turning
Fe@@
á@@
tuệ
tò
nhạy
đáy
phổi
ngầm
aff@@
meters
acked
identity
artists
Great
gg@@
asks
ans@@
Middle
grade
mal
streets
states
rac@@
brings
rain
trial
foot@@
offi@@
fun@@
zero
saving
stra@@
Many
highly
ti
bạch
cốc
vuông
đậu
hiệp
held
spaces
int
phones
central
apped
fying
causes
diseases
various
fir@@
published
ards
tici@@
bread
ộn
À
Chắc
hạng
concer@@
purpose
passion
ambi@@
terrible
afraid
noticed
worst
liber@@
gri@@
radi@@
male
preci@@
Cả
cường
Thời
ọc
Giống
ót
ảng
ải
trôi
thoảng
lão
forces
dence
l-@@
bel@@
yl@@
produced
Have
istic
kin@@
ore@@
communicate
regi@@
600
inst@@
bone
Times
F
gging
tây
ọn
Chuyện
kiên
bốt
5,000
ills
rea@@
forget
lying
kers
term
fli@@
ending
Obama
scientist
áy
Cực
thợ
quái
dàn
hoại
Mĩ
wat@@
ght@@
logist
Instead
passed
spi@@
sides
knowing
cour@@
standard
bees
ngh@@
Lan
hằng
quán
rồ
trắc
Á
nét
Thậm
suit
experiences
repe@@
floor
ost
lets
twice
occu@@
missing
initi@@
necessary
work@@
logic
Take
tóm
ữ
úp
nướng
ặc
chấn
bổ
trạm
Pi@@
fle@@
bru@@
Think
Ac@@
oss
push
glob@@
photograph
aid
trouble
justice
leadership
significant
corruption
iPhone
NASA
Steve
Mal@@
len@@
May
quét
giường
giày
hứa
ngã
lây
wea@@
scre@@
join
closer
rev@@
stopped
stick
core
low-@@
san
mostly
mot@@
bringing
cked
sexual
possibly
bing
extra
logy
dar@@
institutions
cial
Ban
V
lẻ
ngựa
đảng
below
docu@@
rep@@
drop
rock
shel@@
devices
Hey
mates
basis
collabor@@
tric
khô
Kinh
đeo
colleagues
1,000
meter
X
carry
kil@@
conference
adv@@
Ca@@
original
autism
ón
Wikipedia
tuyết
lưng
ụng
molecule
communication
text
hal@@
dies
yer
logical
ase
flu
San@@
capit@@
ries
sy
moments
opportunities
reduce
chăng
Lần
ắng
mẻ
Cùng
2009
Rob@@
played
ket@@
vote
trade
Tor@@
ction
ace@@
dents
xu@@
Đến
tĩnh
Kết
iều
đếm
tiếc
mãn
ùm
Francisco
att@@
helping
olu@@
load
st-@@
end@@
gate
feels
hearing
ought
supply
hom@@
Paris
Bur@@
tail
traffic
ise
Derek
tuy
kèm
Nhân
ặn
ận
ỷ
mèo
00@@
ink
def@@
Sha@@
rule
ash@@
ach
II
ours
feed
wan@@
wear
structures
ature
accoun@@
workers
invol@@
lic
programs
Wor@@
ninh
ề
ò
Khán
bụng
trăng
dán
effort
eu@@
MRI
Mil@@
discu@@
consciousness
nearly
sou@@
ial
quick
tively
lucky
opposite
broken
tar@@
shift
ght-@@
ính
ẫy
hỏng
gói
tám
vement
apart
leading
degrees
He@@
studying
rooms
ble@@
Is@@
cycle
tered
vation
alle@@
Martin
urban
Women
wed
return
sand
uy@@
cong
Bất
hô
emotions
British
lations
pressed
bought
straight
tech
majority
relationships
Ben@@
unk
graph
ols
bus
suppor@@
religion
Nobel
è
dã
quà
ẩy
ủ
khuyên
importantly
husband
pers
crime
acks
responsible
hun@@
alo@@
YouTube
Bab@@
gun
Indian
lang
ngu
ổi
vinh
trần
tiệc
ỏi
gỡ
lăn
ected
irs
195@@
engage
Mark
nic@@
anyway
star
shes
alization
bar
duc@@
conver@@
dom@@
represen@@
gradu@@
agree
ssion
stone
read@@
mothers
tissue
civil
W
–
giấu
ụ
én
lôi
thói
Nghệ
mờ
Cha@@
Actually
prin@@
failure
benefits
forever
wh@@
interact
address
Hel@@
sc@@
determin@@
construc@@
condition
Pr@@
Man@@
photo
Her@@
colors
engine
cloud
tung
ỡ
ịt
Hoá
gã
cụm
wers
although
facts
profit
apply
benefit
differently
transp@@
J
entirely
wisdom
laws
due
sian
Audience
easily
rid
compu@@
lệnh
kênh
dứt
trốn
phiền
chìm
Hội
lâm
ngon
check
hear@@
lesson
brea@@
emb@@
throw
ren
nutri@@
gue
imagination
Angeles
stem
sun@@
ằng
lãm
dò
Nga
heo
lặn
Mr.
ale
in-@@
edge
Go
La
note
ian
Pe@@
esting
c-@@
ograp@@
French
events
aps
educ@@
home@@
achieve
Manhattan
studio
65
oxygen
giơ
bão
dư
gõ
ự
buôn
hư
ử
khao
ngọt
đực
atmosphere
enormous
Tom
accep@@
nec@@
ancient
high@@
cer
matters
However
statistics
worry
dao
Mặc
thuế
bran@@
vering
demonstr@@
U.K.
ened
definition
describe
ast
2005
fix
raised
para@@
leg@@
smell
believ@@
stu@@
deeply
belief
Darwin
mam@@
Alzheimer
resi@@
xy
Vài
Dĩ
thăng
cất
khoan
mệnh
Úc
ớt
Điển
ản
gián
Rập
insi@@
vast
landscape
classroom
reli@@
oxytocin
suffering
Pla@@
mel@@
ssing
dreams
attack
foreign
prom@@
sis
supp@@
23
Ad@@
Arab
pha
cú
ăm
bó
trưa
cúm
iểu
su
hố
Trường
quí
terri@@
ham@@
infrastructure
yed
received
Japan
method
creation
Ed@@
Street
fashion
sul@@
rol@@
link
governments
responsibility
pressure
Gr@@
random
limited
atory
painting
yers
total
gram
tom@@
U
Web
gic
22
thổi
à@@
sàn
n.
wee@@
finished
discover
break@@
fascinating
ists
distance
heat
99
exten@@
tionally
fighting
argument
effects
bli@@
balance
users
none
abi@@
European
Mars
xinh
ếch
bếp
bận
hàm
tân
sector
gene@@
ion
extreme
ly@@
beat
visit
photos
Sometimes
integr@@
ops
interaction
fair
researchers
afford
alism
Boston
eng@@
ja@@
non
nho
ụt
bùng
tươi
lõi
dáng
ron
Sch@@
Tri@@
shoes
verse
thre@@
identi@@
Again
mas@@
respond
ped
vis@@
coo@@
Once
Fri@@
shouldn
Australia
Joe
figured
marketing
Chicago
strategy
loss
aries
cy
sey
40@@
bụi
ẹp
Gần
làn
sữa
dược
Học
mate
Over
equal
despite
Smith
son@@
formed
dy@@
ain
seemed
cle@@
rational
compared
Everybody
houses
corner
deci@@
covered
window
vege@@
adults
27
thri@@
ond
biological
bridge
creatures
Amazon
ì@@
ù
ơ@@
quát
i.
khu@@
rét
tị
Tiếp
ngắm
iếu
nảy
khỉ
nar@@
Peter
moves
keeping
igh@@
not@@
markets
Eric
17@@
imag@@
grown
voices
95
ote
conduc@@
gla@@
married
affect
park
well-@@
auth@@
PA
pat@@
transform
Den@@
cấm
hải
phì
sưu
thẻ
Ngh@@
tắm
fe
offer
deliver
titude
collective
acking
fuel
perfectly
dinner
consi@@
typical
holding
managed
mics
stuck
respect
bot@@
discovery
capital
Asia
quote
legal
alize
ems
laptop
ush
breast
clo@@
CA@@
Hy
lường
tí
liều
ễn
contribu@@
smo@@
report
organic
pil@@
Did
tou@@
frequ@@
calls
ager
west
drawing
direc@@
necessarily
conscious
bank
Ser@@
reali@@
character
cles
ota
Cal@@
internet
ùa
ãi
ố@@
Khoảng
ấ@@
cưới
thịnh
asse@@
bat@@
inci@@
sin@@
ize
acu@@
Would
physi@@
capable
wil@@
industrial
sight
ior
mountain
illustr@@
poli@@
thinks
tremendous
Bang
mouth
disa@@
School
farmers
ful@@
golf
Ab@@
account
ow
catch
tháp
Bài
sơn
lướt
rô
lông
Bức
chúa
Thiên
possibility
enter
argu@@
ential
names
Rwanda
easier
filled
joy
tar
fication
sick
pel@@
dan
Ka@@
shop
dering
failed
fire@@
vic@@
heal@@
af@@
ized
target
oni@@
Can@@
leads
invisible
insects
sites
fairly
sung
--@@
thùng
Trời
nở
trượt
èn
rãi
nhẫn
muỗi
whi@@
negative
nur@@
scr@@
th-@@
ily
hate
itable
investment
amin
san@@
experts
versus
ffi@@
interven@@
letter
inch
Wow
construction
Ga@@
ngập
nhắm
khôn
thỉnh
ngốc
ảy
Cộng
thám
X-quang
trục
equipment
languages
profound
genome
nan@@
billions
peri@@
sudden
gain
emotion
gro@@
ree@@
tual
operate
Vo@@
helps
watched
childhood
notion
indu@@
desire
studied
digi@@
giant
click
King
Gabby
thính
tủ
tướng
nốt
ĩ
châm
thua
nàng
giam
kín
flies
sec@@
detail
mented
50@@
England
ous@@
faci@@
liked
comm@@
wearing
More
Gra@@
efficient
See
pop@@
conta@@
everyday
resp@@
camp@@
leader
ased
ger@@
long@@
thy
US@@
quãng
phú
ỵ
Bao
ày
dám
àu
campaign
views
pal@@
hidden
survi@@
define
vot@@
daily
Japanese
collect
steps
Christi@@
adap@@
designer
cating
pot@@
tre@@
card
apping
invited
charge
16@@
comb@@
mark
rela@@
planning
mouse
influence
opened
Apple
three-@@
sla@@
tuý
Bố
ềm
phạt
ó
xóm
Viện
khớp
dắt
calcu@@
investi@@
philosoph@@
puts
2006
oms
compe@@
lated
leaving
Mel@@
thro@@
nity
sig@@
struc@@
Gates
legi@@
brand
background
planets
factory
compar@@
trained
Very
n-@@
é@@
pra@@
generate
businesses
chair
dio
bert
Green@@
cuộn
phái
cậy
Hơn
nắng
thiệt
section
activ@@
opening
sol@@
dry
block
paint
degree
surprise
brother
depression
struggle
fill
lunch
argue
wer@@
electron@@
advantage
kid@@
inclu@@
assemb@@
Coun@@
Man
tune
Jon@@
mps
relevant
2011
bong
tháo
ặng
ạch
rau
ênh
toả
milli@@
increasingly
followed
experienced
essential
hair
university
electrical
pop
anger
operating
wo@@
fold
slo@@
anthro@@
yan
enjoy
100,000
you@@
damage
institu@@
proud
blu@@
matic
cortex
ela
rung
SW
Higgs
mạn
tông
nhãn
trà
hầm
gấu
scan@@
tel@@
rup@@
ening
neighborhood
abilities
stop@@
ective
gy
alities
gh
univer@@
sage
-up
begins
sold
losing
pain@@
feedback
26
3,000
after@@
29
survival
produc@@
predict
homes
empo@@
mechan@@
org@@
copy
histor@@
quit@@
nghi@@
khơi
cưỡng
nọ
dãy
Ôi
uyên
tuyển
đuôi
ables
chemistry
yellow
Rio
expression
faith
doub@@
ski@@
appeared
surprised
spirit
Wa@@
awesome
Dis@@
intr@@
confi@@
river
separate
base
meat
Good
piano
wild
neuro@@
ld
tens
del@@
but@@
posi@@
aded
Ke@@
ads
nose
constantly
Bon@@
magazine
Stu@@
Free@@
mũ
chước
Tương
Thành
Hệ
Bình
ến
Thông
flight
ron@@
associated
sorry
thin
2004
experimen@@
ough
sad
avoid
direct
distribution
phenomenon
sear@@
War@@
sister
wise
competition
threat
Congo
cheap
violent
Gre@@
concerned
28
trac@@
chip
phot@@
universal
fan
characters
bo
thô
bớt
ố
ửng
uyền
đâm
Chủ
vắc
òi
Này
thuẫn
lò
arms
spot
suggests
20th
rural
print
astron@@
facing
perception
gift
50,000
described
count
tural
recogni@@
shapes
Yet
dimensions
interpre@@
worldwide
Mat@@
coll@@
Bra@@
weapons
Thanks
susp@@
believed
mix
2003
ultimately
TEDx@@
airplane
killing
zon@@
accomp@@
tons
Thu@@
liver
chở
ranh
Thử
muộn
Dương
thưa
hệt
nhở
ười
vở
chìa
wide
analysis
influ@@
rest@@
hur@@
Each
ur
honest
illness
tough
mit
therapy
solved
Latin
Rom@@
separ@@
arely
stro@@
elements
sequ@@
pest
Tony
lif@@
zi@@
appear
cognitive
labor
letters
origami
noise
mortality
brilliant
driven
reci@@
angle
organs
treated
holes
0.@@
mệt
chục
lùi
Tự
điêu
lát
Tiếng
clip
normally
inven@@
Ben
ological
Could
sugg@@
stood
tually
theater
roll
forced
percei@@
pounds
ok
aged
organized
lung
.com
identify
defin@@
Ken@@
soldiers
moon
compare
engineers
adop@@
dish
ordinary
hon@@
Shi@@
Mor@@
Jen@@
xi
1000
Chiến
ứ
ược
Số
kho
hoả
lạm
hòn
Frank
demand
Howard
velo@@
economics
dest
confu@@
ris@@
museum
dian
magi@@
harder
trick
marriage
gin
highest
breath
communi@@
broad@@
áu
bút
nợ
vua
đồi
Mục
mỹ
phẳng
đế
Ngài
Hoả
pher@@
provi@@
At@@
omy
tioning
cultures
generations
fav@@
valuable
safety
slowly
res@@
dist@@
acceler@@
leaves
strength
duction
lock
monit@@
clock
collection
Henry
hos@@
sty
tube
fru@@
innov@@
tun@@
Gal@@
stea@@
lum
sia
Ven@@
Sau@@
33
sugar
ara@@
ọng
Nha
thôn
cởi
múa
bọ
Hà
khúc
sứ
trấn
đới
ngực
gánh
plus
scen@@
quest
scene
ken
paying
organ
hol@@
jump
hasn
dots
Phili@@
earth
currently
clin@@
caused
cure
commercial
multiple
gap
inner
fail
details
match
wered
wal@@
vel@@
Cor@@
dings
artificial
tured
via
election
wealth
Tin
ộp
Quan
Cập
mấu
kịp
ễ
Bảo
ze@@
14@@
musc@@
lers
Cap@@
passionate
professional
testing
exc@@
hel@@
whom
cious
tomorrow
gos
weird
ado@@
fro@@
oned
satis@@
radical
considered
mm
lant
Wil@@
een
tains
bubble
glu@@
sin
videos
Koran
i-@@
Khoa
ìm
Cứ
vải
sốc
rễ
ủi
plane
controlled
clinical
maker
organisms
Ari@@
religious
tie
osity
laugh@@
walls
jazz
p-@@
forests
solving
gged
sting
productive
fell
property
rely
transpar@@
spoke
wake
neu@@
employees
Sp@@
Second
invest
strate@@
ry@@
2,@@
olly
location
wondering
soil
file
Chiếc
duyệt
khôi
hãng
mỏi
nghiện
ên
migr@@
engineer
unfortunately
er-@@
article
caught
aling
While
cus
seriously
consumption
consequences
toilet
gor@@
affected
repor@@
secre@@
acted
sons
sentence
ug@@
Em@@
pay@@
defined
preven@@
swim
cket
gency
de-@@
MT
òm
thâm
Dự
ừ
đi@@
nghịch
ượng
Hàng
ngoan
ũ
èo
ráp
cối
hưu
govern@@
appro@@
interface
producing
otherwise
negoti@@
leg
ods
musical
pleasure
feelings
empty
Brian
Star@@
anic
awful
approa@@
itation
As@@
character@@
heads
contact
graduate
spring
circle
Hi@@
X-@@
ak
connections
lau@@
phi@@
Tốt
Hình
lưỡng
ường
Loại
khẳng
nhặt
khiếm
Thổ
rain@@
pages
gather@@
Cambridge
unless
El@@
user
specifically
ou
graphic
Pen@@
chain
Stanford
hadn
infected
malaria
frustr@@
dom
bright
lege
nations
mers
virtual
ater
partner
fat
viol@@
Pri@@
Everything
discipl@@
photographs
250
represent
Atlan@@
tele@@
penguins
â@@
địch
ề@@
ắc
vây
mâu
hồng
cuồng
lật
ứt
nhiếp
hip
ings
curious
mentary
Pu@@
fiction
sle@@
confidence
molecular
calling
hacker
Mos@@
now@@
dogs
according
elling
Pre@@
sharks
scar@@
geous
metal
spo@@
remote
on-@@
mod@@
manage
rement
kno@@
unexpected
val
Ghana
archit@@
convinced
ins@@
whenever
blin@@
prevent
democratic
arts
Microsoft
eo
Sun
km
Ford
Á@@
hẹp
sắt
ú@@
Bệnh
ng.
đố
Toàn
phím
Thượng
narrative
diet
teen@@
signed
parent
sending
chec@@
master
Does
blocks
Life
xes
ki
Their
finish
AR@@
tum
han@@
expected
hypothe@@
instal@@
professor
intelligent
net@@
released
threat@@
scan
My@@
Rus@@
prove
categ@@
iP@@
Art
gender
empathy
Jac@@
analo@@
laser
Wall
magne@@
Ali@@
regular
fewer
Come
resource
elec@@
vehicle
khói
ứa
Hiệp
vươn
Rõ
Nghe
rắn
Quá
rập
burn
importance
accident
gam@@
writer
Gar@@
president
concentr@@
equivalent
Fer@@
was@@
promise
deeper
grandmother
definitely
ride
Oxford
arrived
mur@@
ty-@@
cope
underneath
algorithms
printing
thin@@
politicians
Ros@@
ind
entreprene@@
ton@@
Any@@
Three
Uganda
pollen
Mad@@
warming
Gol@@
You@@
ỉa
khuyết
mảng
Tình
nà@@
đàm
ế@@
đáo
weather
thoughts
duces
cont@@
194@@
illu@@
perfor@@
closed
hell
autom@@
sum@@
ja
iness
designing
launched
200@@
hopefully
saved
techniques
ints
invention
divi@@
civili@@
Juli@@
32
adult
sources
ket
thers
driver
tica
activi@@
rửa
cừu
ẫn
gối
ợi
Tên
đoan
đẻ
khoái
ịnh
00
makers
debate
boat
tally
tations
cere@@
ancy
fre@@
cutting
picked
six@@
lifetime
gie
notes
compos@@
singing
players
fal@@
ssi@@
susta@@
tables
enjo@@
Ter@@
gentlemen
800
mail
je@@
battery
mid@@
psychology
athle@@
relatively
itting
camp
atures
whe@@
scal@@
dia
placed
absolute
wings
signal
loy@@
reward
Mis@@
eling
reaction
ạ@@
tần
cạn
vie@@
processes
fourth
worried
technical
ration
Kore@@
ora
Please
awareness
woo@@
dru@@
hop
bene@@
Day
ire
independent
motion
management
mul@@
sco@@
jec@@
heavy
Center
Bang@@
lec@@
thir@@
terr@@
credit
rema@@
Pol@@
1960
refuge@@
1990
pizza
hospitals
sor@@
near@@
Swe@@
reve@@
cir@@
post-@@
entropy
We@@
rot@@
Sar@@
lot@@
Bắt
sạn
cướp
màng
dải
Ok
dẻo
dạo
úc
mồi
ằn
ươ@@
emissions
hung
appe@@
practical
wine
adly
une@@
nge
setting
ception
hurt
emerging
budget
buying
selling
switch
vulnerable
She@@
foundation
Lee
Taliban
stance
victims
chol@@
require
invent
commit@@
goods
metaphor
ships
cross
Nu@@
counter@@
physici@@
requires
mony
staff
Lib@@
shark
tu
treo
ớ@@
àm
vẹn
lận
Thiết
lệch
manh
đạn
Bên
chín
Ngân
ết
ươi
Máy
trân
measu@@
wave
principle
tter
prob@@
miss
toward
player
trip
ena
designers
accu@@
mulation
ison
effectively
nervous
logi@@
epidemic
2001
diagnos@@
evil
Amy
short@@
los@@
encoura@@
oting
addition
horse
visu@@
Jer@@
tracking
Florida
stronger
dered
Prin@@
rates
coal
Hans
Fin@@
85
ams
dolph@@
đạc
bơm
ộng
lợn
ỉnh
Dân
Tiến
dâm
cắm
Cha
nô
topic
control@@
grandfather
risks
Germany
ario
mirac@@
layer
sees
mistakes
accept
mb
figu@@
release
status
spectrum
dynamic
existing
smile
arri@@
island
bird
civilization
gger
double
enz@@
lish
folks
Mur@@
newspaper
kins
Ital@@
ority
Demo@@
bon
fel@@
attrac@@
resear@@
bin
real@@
ero@@
exercise
introduced
transformation
signals
Bush
portra@@
psy@@
ecosystem
Am@@
Neanderth@@
đền
ộ@@
cắp
vĩnh
quyên
alists
sively
trials
memories
gras@@
birthday
honor
modi@@
12@@
play@@
conclu@@
sible
dem@@
lessons
actor
drink
dan@@
cers
disco@@
fields
sel
31
pack@@
amounts
restaurant
exists
peak
false
Texas
barri@@
long-term
waves
Br@@
manipu@@
humor
gies
one@@
ight
program@@
ural
introduce
pt
lady
exact
novel
pres@@
engaged
Fre@@
Bank
bắp
Hàn
tuân
ìa
ẽ
iếm
lờ
bọc
khiêu
ển
kiệt
buýt
kẹt
ơm
khuynh
kẹo
Chri@@
cienti@@
Hi
lat@@
silence
ech
Sahara
east
ye
xed
appropriate
Mas@@
Sun@@
Since
bottle
fr@@
State
bucks
roughly
stable
estab@@
zer@@
nging
seat
vember
3.@@
remain
lor
nes@@
personally
Lego
added
kilometers
Cho@@
possibilities
bear
stupid
Chi@@
tings
tox@@
eleph@@
Charlie
Aristotle
ín
Ala@@
iệt
ấc
óng
chúc
huyền
Âm
Kể
nhàng
nhầm
dọn
mòn
Nơi
lấp
120
alternative
sation
bike
correct
cents
multi-@@
atu@@
falling
breaking
Hun@@
gy@@
ance@@
farm
comple@@
mention
proteins
remin@@
cards
.C.
fellow
insight
poetry
ets
well-being
I.@@
carefully
custom@@
dramatic
warm
ac
Min@@
alter@@
A-@@
q@@
tradition
habit@@
Yemen
principles
qui
dir@@
Ku@@
Arthur
ậu
đỗ
thắc
xám
iếp
óm
giãn
tựa
cacbon
đai
Phụ
grid
occa@@
m-@@
Jim
meaningful
voc@@
inher@@
acci@@
A.
till
sensitive
ition
depends
ame
electric
express
Long
pre-@@
trop@@
bet
part@@
nership
crip@@
sets
ant@@
chocolate
eep
error
accurate
CEO
eless
expec@@
Hy@@
explains
tent
des@@
gation
simul@@
web@@
Mini@@
stric@@
encourage
author
tili@@
shall
platform
ino
liquid
lũng
ình
Chà
ể
mười
mồ
trú
củ@@
gli@@
Inter@@
Char@@
dealing
bb@@
mentioned
Ci@@
help@@
Jor@@
cow
anti-@@
funding
correc@@
subjects
ite@@
spar@@
interests
wering
inev@@
announ@@
cle
art@@
ast@@
recor@@
SA
ckets
ghter
circumstances
me-@@
doubt
scared
battle
arily
reason@@
rare
pet
ão
components
pon@@
walks
Sweden
encoun@@
protection
hydrogen
combine
chemicals
stry
lessly
plans
dic
Cyrus
wars
particles
ith
Han@@
Ai@@
ko@@
the-@@
mush@@
y.
cương
thằng
ẹo
mọc
mỏng
Mình
thép
chăn
nơ-ron
vay
vỗ
cựu
ễu
variety
perform
craft
sub-@@
typically
story@@
chose
memor@@
sequence
participate
ware
chee@@
cs
atoms
factor
chicken
shame
judg@@
2050
fresh
temporary
encing
rapidly
invest@@
Sec@@
carrying
Lea@@
appears
privi@@
constant
eled
environments
Britain
frame
ram
mon
capture
strict
gold
Q
Ko@@
advice
string
flower
ED
gravity
Bos@@
dở
ạm
khéo
Tuyệt
lơ
Lạp
Tổng
ụi
nêu
Nước
íp
đợt
vượng
ngừa
vé
nát
joined
shock
domin@@
chest
loud
inary
Gen@@
burg
sche@@
wl
cell@@
improvi@@
sports
jected
percentage
tile
framework
shoul@@
nia
root
Last
innovative
prepar@@
jump@@
mind@@
ak@@
mi
sweet
year-old
ounds
fundamentally
worlds
Tit@@
Mer@@
graphy
unit
conser@@
gel
Daniel
unusual
economies
transition
Mandela
senses
cas@@
sci@@
mathematics
arch@@
goals
navi@@
CH@@
Nghiên
sôi
ýt
ỉ@@
Hải
bá
dũng
hôi
dốc
rẽ
viewed
therap@@
authority
peace@@
replace
conventional
boun@@
applied
pair
wondered
stock
sample
Ah
messages
abled
medium
dense
van@@
runs
house@@
stics
zone
tain@@
aten
spon@@
asing
tee
hood
patent
stin@@
galaxy
overwhel@@
intellectual
mountains
movies
swimming
700
great@@
interview
danger
auton@@
Science
lig@@
member
BC
ord
ffer@@
she@@
attacks
candi@@
Lar@@
aled
tested
manu@@
animation
ho
bun@@
atar
Bol@@
í@@
Norden
xôi
lượt
chợ
Điểm
thoái
Tổ
Đồng
Pan@@
boxes
bloo@@
films
cong@@
cave
Hollywood
sten
nor
computing
hard@@
opinion
dam
concrete
increasing
element
keys
suggest
sym@@
primary
shy
dicated
flowers
roads
tumor
operation
doors
philosophy
venture
recei@@
seven@@
disaster
hoping
Gulf
vely
sw@@
Her
exchange
architect
elev@@
manufacturing
pound
entrepreneurs
collapse
U.N.
former
solid
bal
William
finance
land@@
Phil@@
regions
tery
nan
lium
lus
PT@@
economists
teams
ardo
passwords
nhu@@
hạch
ửi
éo
nén
nản
bỗng
ỳ
mày
phác
hoài
21st
reg@@
Dur@@
associ@@
liter@@
tour
fake
main@@
cin@@
Por@@
bre@@
tious
skill
rhyth@@
increased
shaped
gon@@
discussion
aggre@@
Only
port
yesterday
poly@@
dro
wash@@
corpor@@
traveling
severe
polio
however
vaccines
collaboration
instruc@@
oceans
ford
ade
processing
Stephen
of-@@
Dar@@
tory
miser@@
cau@@
St.
esp@@
Brown
sunlight
key@@
tea
automa@@
gal
base@@
spa@@
factors
destruction
any@@
Ky@@
teeth
facial
kie
Ty@@
instrument
mes@@
ola
Gore
Rosling
German
LED
Tim
Watson
n--
ủa
thầm
dội
vang
bách
chả
trật
ữa
Quý
ssions
tat@@
acqui@@
prepared
yard
behavioral
mming
thic
aria
Mah@@
sing@@
escap@@
toler@@
cry
Foundation
five-@@
served
constra@@
visible
Russia
movements
combination
crow@@
option
diag@@
run@@
tries
Lau@@
steel
ania
20,000
36
ri
mum
si
duced
cies
resistance
estion
Andrew
Ah@@
electr@@
Coca-Cola
cooking
conversations
tian
Ray
Indonesia
gn@@
ansas
Nan@@
ọi
pho
trừu
Sinh
ọ
ắm
xíu
nghiệt
bấy
òn
Bác
ẩu
Phương
tiễn
gác
chua
ange
journ@@
sophisticated
behaviors
Win@@
previous
promis@@
cians
applications
enced
ere
burgh
venue
authenti@@
stand@@
Syria
an-@@
centers
lished
transportation
exter@@
holds
Som@@
heroes
groun@@
Muslim
challenging
propor@@
open@@
sup@@
relations
expert
hori@@
resili@@
mism
Congress
virtu@@
sau@@
Mike
kilo@@
include
competi@@
Abraham
President
Lan@@
stands
au
icks
Gener@@
bag
al-@@
corn
Time
ared
stan
devil
Singapore
password
ửa
hụt
nụ
bìa
lắc
ư@@
ượ@@
cổng
radiation
chron@@
offers
reverse
procedu@@
post
bili@@
mirror
ros@@
eets
generally
soun@@
gall@@
instinc@@
Israel@@
Also
ags
surroun@@
agriculture
south
mous
lob@@
yn@@
deva@@
mar
gui@@
cameras
busy
convince
ew
some@@
Perhaps
ere@@
37
eggs
ctic
atten@@
progre@@
controver@@
cki@@
4,000
photograph@@
rom@@
nee@@
crowd
yi@@
Institute
mechanism
represents
Sy@@
Nelson
border
lifestyle
1950
tests
fusion
nie
mil@@
c.
motor
kg
muối
Thánh
thẳm
đà
ruồi
ica
Stewart
tled
literature
consist@@
estimate
bee@@
Carolina
Nobody
econom@@
department
and-@@
Give
ge-@@
shake
ville
drin@@
dancing
ghters
mistake
samples
ua
transformed
elly
maps
anony@@
stret@@
rap
Zealand
lap@@
stayed
nel
milk
presence
illegal
situations
certainty
imple@@
parking
tape
courage
addic@@
SS
sustainability
dit@@
cock@@
surve@@
process@@
axis
ben@@
Dec@@
ducing
earthquake
Islamic
Sal@@
1970
phia
inspiration
sacrifi@@
---
Detroit
insulin
y--
ều
nề
ùn
trộm
vụn
Trẻ
ẳng
soạn
mộng
thổ
nơ
đẽ
ếp
xích
giặt
bướ@@
xăng
súc
lúa
satellite
buil@@
display
gration
potentially
vor
fears
reas@@
nano
hits
rough
ples
options
dding
swe@@
physically
band
Yorker
ser
embarras@@
neighbors
intense
t.
intro@@
verage
coast
.D.
stern
winter
2002
burning
continent
ultimate
bust
pulled
organi@@
unh@@
touched
refu@@
determine
existence
tiv@@
identical
jective
metabo@@
somewhat
dam@@
Prize
immune
Pole
signs
cyber@@
clouds
dated
epi@@
diagnosed
jection
inju@@
collecting
borders
2012
appar@@
bit@@
plays
zar@@
hunger
mươi
ván
rũ
ẫm
xưởng
Đi
chợt
ùi
xướng
gũi
Chào
laboratory
slu@@
deman@@
deta@@
ques@@
Shakespeare
detect
whist@@
proof
Everyone
advanced
dary
writ@@
Bob
come@@
hide
cast
poster
Hal@@
tles
collected
mile
yn
vest
joke
mix@@
globe
viruses
closely
ngdom
Bronx
corporate
scho@@
treat@@
tonight
deser@@
Pau@@
dot
allowing
life-@@
equally
thanks
neighbor@@
Fa@@
functional
Spe@@
dless
Museum
interactive
trau@@
quanti@@
embrace
centuries
Sou@@
poses
technique
chop@@
puzzle
ladies
vehicles
ographic
males
gible
Chile
January
ecture
desert
properties
tráng
bê
ừ@@
khoáng
tím
ị@@
mượn
Hoà
ngẫm
chẽ
ưới
Tưởng
echnology
Will
Christmas
admit
painful
rememb@@
contrast
mainly
keeps
racing
ing@@
grain
protected
paraly@@
activities
unknown
nets
desper@@
ading
spreading
Satur@@
distinc@@
phrase
occur@@
boring
symptoms
broke
internal
lites
aces
assi@@
arguments
implications
omes
ector
ids
soul
horrible
chart
care@@
Dou@@
generated
length
style
inh@@
DA
ign
wide@@
alist
intuitive
arian
co-@@
Hom@@
Joshua
fab@@
arre@@
fund
wheel
app
shar@@
execu@@
continued
Ham@@
Bay
ax@@
cống
úi
Lấy
hét
Gia
độn
i--
quặc
bẩn
ă@@
lân
nhường
trán
quyến
cược
Nghĩa
nhào
dỗ
commu@@
bed@@
inspi@@
fossi@@
journalist
ballo@@
Lou@@
Hon@@
water@@
pack
incentives
shir@@
reaching
Fo@@
int@@
Kevin
pen
elimin@@
ini@@
perman@@
Egypt
onies
etti
mobi@@
Island
September
orders
sus
dropped
appear@@
healthcare
claim
pushing
faced
stress@@
raising
nit@@
evalu@@
Revolution
conflicts
hoods
conclusion
Before
55
ections
explained
list@@
underwater
strea@@
kitchen
ould
phase
desk
bias
IBM
prefer
measuring
pregnant
tary
likes
loyed
19th
expres@@
obesity
designs
entertainment
rors
High
ó@@
Montana
quad
Subtitles
Transcript
Điện
mến
nhạt
hò
Giá
ẻo
nồng
bám
ợ
Qua
ỗ
gìn
Giọng
lều
bấm
Hea@@
House
pocket
unlike
classes
Project
ly-@@
fam@@
cil
systema@@
rever@@
quiet
performing
loop
pure
who@@
shoot
surrounded
records
prototype
breathe
itarian
largely
alia
brothers
secon@@
wire@@
vor@@
py
galaxies
insurance
tative
Hop@@
hero
NG@@
appy
mble
so-@@
missed
48
Far@@
providing
hot@@
logically
indi@@
eet
Gla@@
funded
About
relate
jo
grass
sleep@@
overall
Sus@@
flexi@@
advertising
worker
struck
judge
swi@@
Sam
obsessed
required
stations
cats
vey
fic@@
ego
reached
sic
channel
Ger@@
lite
Fu@@
Donald
Gan@@
sáo
Chị
rỗng
sét
óp
ruột
sắm
úa
mãnh
lánh
hiếp
collap@@
divide
underst@@
osphere
+
Basically
Pas@@
plate
honest@@
recorded
songs
roots
Pop@@
assume
grateful
kness
Te@@
Bot@@
four-@@
feeding
expan@@
Anyway
dream@@
zer
ideal
sum
greenhouse
C.
Berk@@
abu@@
mystery
frankly
era@@
causing
smar@@
sour@@
apo@@
angry
Sher@@
BA
ria
seed
church
ste
spoken
fail@@
launch
housing
Green
lates
itch@@
naturally
disappear
Iceland
consumer
Cri@@
garden
crea@@
mathematical
pollution
limits
mechanical
jail
ox@@
lam
thấm
Loài
mổ
Cần
cài
chôn
luỹ
ảm
Đấy
Nguyên
phun
lùng
nhện
bold
vac@@
papers
latest
outcome
celebr@@
careful
Irani@@
anda
Bel@@
pose
grab
eld
nurses
remove
ni
volume
opera
suffer
north
raw
Air@@
moder@@
vin@@
oling
Oc@@
esthe@@
strangers
cat
younger
ila
comman@@
Afgh@@
pointed
Haw@@
theme
titu@@
graph@@
efficiency
agencies
Joseph
pharm@@
tax
antibiotics
orities
fingers
dates
place@@
recon@@
puzz@@
Ear@@
sually
religions
Jesus
apartment
prac@@
Silicon
Valley
eline
MS
oes
weal@@
E.@@
follo@@
marath@@
tribe
methods
CE@@
Talks
Dan@@
deaths
handle
senten@@
Qaeda
thung
giọt
vạch
hóc
Cháu
xuân
Quỹ
lồng
uy
consu@@
offered
DVD
classic
Gandhi
academic
engagement
accessible
outcomes
ky@@
input
abstract
vulnerability
Palestine
wherever
logo
France
kee@@
maintain
loc@@
passe@@
opia
oli@@
rane
ational
1999
cup
hang@@
tied
lied
indic@@
ssive
populations
educational
functions
Kar@@
customers
tall
shut
prece@@
ures
statement
Lak@@
fascinated
suc@@
flat
Colum@@
sexu@@
ession
laugh
boo@@
calcul@@
illusion
Union
lest
interactions
graphics
dea@@
sensors
organ@@
paradig@@
tion-@@
figures
phe
swee@@
all@@
Wright
electron
hearts
Zimb@@
soft
criminal
ole
historical
phere
Antar@@
grand
Bla@@
locked
1980
Jack
oid
Delhi
Leon@@
Ver@@
xăm
lỡ
tê
hãm
ườn
thượng
ắ@@
Ngoài
huynh
Nhĩ
chọc
ạy
triệt
chel
AM
clear@@
dozen
summar@@
projec@@
teen
traveled
teenagers
absor@@
finite
cheaper
mulate
drives
origin@@
refriger@@
evolutionary
stors
eg@@
refer@@
Finally
bow
ema@@
sna@@
Bri@@
hall
Fellow
pred@@
floo@@
prison@@
taste
Kin@@
30@@
roof
ener@@
planes
ament
repair
selection
Lewis
centi@@
secure
ented
Sky@@
oring
dang@@
vy
whereas
Health
geni@@
distur@@
BI
cky
speaker
contribute
windows
Alexander
ee
eck
concepts
cans
focu@@
datab@@
burger
diplom@@
formation
dictionary
Colom@@
Afri@@
mani@@
phosph@@
Jill
BJ
GG
iển
léo
bóc
lăng
ổng
Giải
Sĩ
móng
Tư
vòi
tivi
explos@@
banks
electro@@
sky@@
component
citiz@@
occurred
distributed
behave
curi@@
volunteers
inno@@
lou@@
ignorance
Cra@@
Tra@@
Scotland
leep
furniture
cratic
frozen
cord
poorest
commitment
surely
reads
sticks
serving
ingredients
equation
pare
Viet@@
poem
anding
afternoon
happier
medit@@
climb@@
particip@@
ests
hotel
clever
ridicul@@
technological
receive
attempt
existed
guaran@@
dau@@
fortunate
Tom@@
-like
library
Be
partners
coral
cartoon
ank@@
winning
neuron
bomb
imagined
height
anz@@
Five
Laden
Kim
lear@@
MA
apple
precisely
gun@@
ester
translate
application
button
New@@
Arabic
gray
practices
oty@@
SO@@
fathers
eth
vis
wheelchair
reference
tals
Bil@@
Wolfram
WK
ựa
ãnh
đc
lề
vịnh
Sức
tựu
Rec@@
imaging
director
crimin@@
oral
plenty
trend
sities
morality
official
combined
nd
army
thal@@
recyc@@
Eastern
sheep
evening
shell
curve
kets
mor
colum@@
eni@@
divided
taneously
Os
pursu@@
.m.
dramatically
marke@@
Tru@@
ried
ird
chromos@@
smoke
appreciate
Blue
captured
steri@@
veness
three-dimensional
clothes
cially
bee
thier
Ted
Str@@
yp@@
mining
invite
Next
achieved
nowhere
impre@@
polar
admini@@
seeds
stries
Park
Kenne@@
3,@@
Central
Newton
Matt
inequality
micr@@
Islam
copy@@
ịa
ờ@@
ãy
vứt
chằm
Tác
tuỷ
ng--
khiêm
chớp
chuông
mỳ
quạ
Đảng
teries
secu@@
34
increases
Bible
survey
falls
what@@
Get
mess
extent
adapt
enemy
Moore
L.@@
rising
hungry
cook
climb
alu@@
wired
random@@
Bir@@
knee
ghted
destroy
fat@@
dges
38
ause
successfully
destroyed
astro@@
Ethi@@
anim@@
year-olds
parti@@
distr@@
frighten@@
ouri@@
shine
conveni@@
Es@@
wanting
ense
-making
license
sign@@
manufac@@
open-source
brow@@
1984
agu@@
tribes
by-@@
constitu@@
organize
Really
herself
Virginia
connecting
ulous
Simon
dition
lui
attribu@@
albu@@
Peace
Os@@
fixed
NI@@
psychi@@
tize
comprom@@
Unfortunately
Jones
osaurs
photography
gers
Indi@@
embedded
96
fishing
optimistic
pun@@
hen
elections
42
yle
trillion
Bl@@
JH
Shar@@
v.@@
thắt
lưỡi
kìa
nhiễu
ẫu
vờ
Bước
đô-la
bốc
Thường
ngẩn
luồng
Ả@@
nếp
uyến
Thưa
Đường
võng
đóm
nels
aspects
half-@@
fed
Brooklyn
Frank@@
hack@@
villages
surprisingly
engaging
Franc@@
bacter@@
removed
remind
orches@@
dal
Leban@@
clean@@
ril@@
tioned
lary
yl
fic
Red
remains
ass
otic
Ever@@
quan@@
surgeon
-and-@@
Jan@@
bree@@
disorder
rati@@
dder
inspiring
acti@@
Act
abun@@
imper@@
tancy
shor@@
mind-@@
gestu@@
pool
dar
meetings
expectations
less@@
develop@@
nik
agri@@
Budd@@
enh@@
rat
Econ@@
cular
classical
apers
shif@@
standards
Squ@@
tract
prosper@@
extrac@@
tradi@@
form@@
obstac@@
dig@@
regar@@
Parkinson
score
rupt
smart@@
speakers
musi@@
oldest
ano
Ken
acc@@
Tasmanian
Sarah
charity
whales
whale
Teszler
Di
ụ@@
kiêng
dịp
gạch
Cá
hoan
hoành
Chưa
Văn
èm
ngưng
đo@@
bồi
xà
đoạt
Uy
Luật
chemi@@
ysi@@
robotic
upper
Whe@@
deed
celebrate
season
indepen@@
Love
thou@@
provided
Eve
Elizab@@
descrip@@
sen
Rea@@
champ@@
react
sheet
difficul@@
evolve
instruments
sized
audi@@
Scott
ignore
zy
Hawai@@
gather
unlikely
consume
Ang@@
anced
mad
allo@@
spinal
savings
tac@@
printed
addre@@
rami@@
Johnny
addi@@
delivered
mili@@
cot@@
profession@@
vable
worthy
attemp@@
new@@
statisti@@
session
dopamine
Point
ells
linked
silent
nhi@@
let@@
bones
stun@@
exploration
comfort
White
ays
describes
bot
connec@@
rays
split
desti@@
Mac@@
TEDGlobal
reported
expand
represented
decline
eries
transi@@
Ol@@
Copenhagen
Tanzania
Ker@@
ror
romantic
powers
ink@@
ple
gence
Cru@@
Joh@@
John@@
vibra@@
phenomen@@
ngue
24@@
IN@@
Bell
Beij@@
2030
Argenti@@
Alpha
sọ
khoăn
ãng
đuối
nhóc
ưởi
Thì
ngớ
hít
Đơn
cọ
đúc
Thêm
Xem
Giai
đôla
ợ@@
El
inte@@
chap@@
64
paintings
transforma@@
choos@@
provo@@
mou@@
ngton
dow
aspect
ert
chosen
synthe@@
injury
Moz@@
Alex
Sin@@
pret@@
crying
mies
presen@@
zo@@
beach
ight@@
dependent
tea@@
International
wire
ologist
Children
breathing
coordin@@
py@@
suicide
25@@
volunte@@
reveal
efforts
Indu@@
depend
anticip@@
ference
The@@
dimensional
apa@@
bie
58
depen@@
demonstrate
scary
astonishing
lovely
footprint
grams
ani
yor
enable
succeed
Muslims
presented
edit@@
nos@@
Tah@@
Gor@@
agenda
B.
f-@@
femin@@
life@@
watt
vol@@
hen@@
Trea@@
ead
diab@@
Julia
bicycle
shadow
lighting
photograp@@
eye@@
defense
telescope
dioxide
Space
80s
sandwich
accur@@
tate
ska
regret
mann
1900
Olympic
Line
gai
ịu
ệ@@
đó@@
Đứa
đậm
đu@@
Phát
ậ@@
Trở
gậy
hận
rements
ination
bly
thrown
tin@@
stein
pressing
properly
omic
Hol@@
title
stroke
slides
Ob@@
phony
musicians
ves@@
onic
measured
Me
batt@@
conservation
poin@@
spiritual
cake
Gree@@
June
alizing
momen@@
ual
ectively
rer
IM@@
enly
essence
relation
attle
participants
30,000
Cy@@
fur
affordable
istics
RNA
fifth
shifting
instantly
iso@@
frea@@
exploring
sphere
Saharan
intri@@
algorith@@
zoom
beliefs
Phot@@
finds
full-@@
pollin@@
AO
ese
cials
chairs
symbol
compas@@
neuroscience
72
tized
recovery
Jerusalem
hyper@@
30s
extinct
amongst
athan
females
iti
Sierra
cartoons
agreed
real-@@
drone
lesc@@
fabric
grows
berry
Victori@@
S.
extract
Hir@@
Cher@@
pherom@@
debt
Girl
ES@@
jihad
EDI
canh
rỉ
ngột
Hành
ỏ@@
ât
vả
hoãn
mỡ
hổng
ệm
nhủ
nàn
Động
Hợp
Vật
ôt
ghê
Đo@@
bể
ep
boundaries
tack@@
pilot
On@@
neither
friendly
lities
dency
nis
document
Other
letting
ums
explanation
dows
Remember
acific
granted
drawn
cip@@
exhibi@@
succee@@
failing
Jay
mentally
Sur@@
calculate
vel
hil@@
compla@@
dor@@
paren@@
presentation
imagery
carried
derly
rescue
Gil@@
unclear
powered
rants
ter-@@
Pic@@
anxiety
partment
Nature
coho@@
Muhammad
dominant
tops
licate
hemis@@
attached
density
relative
stere@@
ecu@@
pper
98
actors
units
cooperation
extre@@
reson@@
talent
bility
Mag@@
got@@
Clinton
microscope
crac@@
hallucin@@
depending
Nothing
truck
etes
Sylvia
auti@@
criminals
spee@@
needle
sculpture
consumers
Van
drill
tus
OECD
drones
neuros@@
nho@@
nhánh
Phòng
giật
Khá
băn
Đa
gãy
iện
Quay
Việt
gom
vội
ũng
ồm
tiệm
chuyền
điền
nghẽn
tuỵ
Na
bầy
quỷ
oxy
func@@
dle
policies
gir@@
tories
shopping
lli@@
sensory
premi@@
struggling
returned
knowle@@
isms
resistant
pointing
ican
proper
snow
privacy
put@@
underground
agers
oph@@
Eng@@
recognition
chil@@
consequ@@
vessels
restore
viewer
schizoph@@
mathema@@
ía
xé
ườ@@
vất
ớn
ừa
achie@@
sely
evol@@
vacc@@
phil@@
employ@@
spir@@
zations
neighb@@
conf@@
bble
atta@@
laun@@
usual
gol@@
bec@@
ậm
Ư@@
expla@@
glo@@
unch
obe@@
abor@@
timate
long-@@
safe@@
les@@
cient
swit@@
tissu@@
gely
tely
civi@@
sal
vative
appreci@@
cess
ester@@
Euro@@
ech@@
ự@@
iệ@@
ượn
ếm
nam@@
dyna@@
cei@@
mation
consci@@
desp@@
trou@@
power@@
opti@@
mely
evi@@
class@@
profes@@
athy
Don@@
Willi@@
Tes@@
iệu
ướt
ạnh
iếc
colleagu@@
cide
intu@@
coura@@
sit@@
symp@@
tral
expen@@
toi@@
nat@@
immu@@
cript
lings
sculp@@
curren@@
licon
ico
ầ@@
impos@@
artic@@
…
tle@@
dimen@@
strial
gover@@
incenti@@
Vir@@
Uni@@
sof@@
sens@@
ald
memb@@
low@@
âng
uyết
ẹn
asy
Palesti@@
extra@@
with@@
desi@@
tap@@
dow@@
micros@@
robo@@
condi@@
loo@@
mption
til
ghtly
rough@@
Sim@@
commer@@
CD
ộm
ỏng
ậy
ựng
ợn
ả@@
ỹ
hydro@@
Austr@@
Tal@@
soldi@@
ree
conn@@
plac@@
gran@@
Wol@@
dio@@
quot@@
ason
sugge@@
suffer@@
even@@
lev@@
ởi
iếng
ở@@
ẽ@@
rele@@
scap@@
tting
grap@@
streng@@
primar@@
pression
stom@@
valu@@
Tw@@
bud@@
vil
equi@@
exhi@@
favor@@
antly
nifi@@
cele@@
newsp@@
experi@@
solu@@
ques
del
Wat@@
progra@@
temper@@
Ngo@@
khi@@
úm
immedi@@
spea@@
sac@@
aning
optimi@@
fing@@
smal@@
eli@@
rst
happ@@
esses
avo@@
Geor@@
sibility
age@@
abo@@
ade@@
rent
ris
Olymp@@
jud@@
oto
cracy
Í@@
ững
sity
tech@@
ild
campa@@
requi@@
larly
zon
differ@@
Secon@@
ve-@@
oud
jour@@
engine@@
fee@@
ees
Egy@@
state@@
acr@@
regre@@
like@@
open-@@
ãn
Ừ
simil@@
meth@@
vements
pollu@@
oul@@
concep@@
develo@@
ght
ordin@@
weap@@
stitu@@
aly@@
pengu@@
m.
ẹ@@
ứu
tom
previ@@
signifi@@
Mex@@
mir@@
vu@@
emo@@
presi@@
HI@@
dation
lit
inning
Scot@@
native
Tas@@
carto@@
DP
Wiki@@
ớm
ỡ@@
ign@@
Brit@@
mea@@
kne@@
offer@@
ecosyst@@
destro@@
Del@@
stru@@
turing
obse@@
Global
ami
Fran@@
chers
ue
astic
geon
thema@@
Zi@@
ượt
ject
partici@@
vice
fits
fair@@
ras@@
moun@@
prototy@@
rying
soli@@
ood
rais@@
fs
labor@@
transfor@@
dat@@
=
inve@@
presents
dol@@
won@@
ghten@@
plat@@
atever
essor
selves
spe@@
mom@@
ath@@
surg@@
ute
proble@@
Lad@@
urch
un
ereas
ữ@@
incre@@
exper@@
classi@@
satel@@
lars
shap@@
Ira@@
ada
tran@@
beauti@@
extin@@
ện
ũ@@
ìn
adver@@
Sm@@
transpor@@
horri@@
Stan@@
worl@@
intel@@
lier
distribu@@
pic
individu@@
fashi@@
ficial
D.
partic@@
pati@@
une
stery
õ
ety
fant@@
um@@
sever@@
recy@@
Carol@@
landscap@@
acade@@
Ox@@
ouse
symbo@@
fur@@
mach@@
com
fortunately
cept
conven@@
rescu@@
Jos@@
NA@@
tionary
exerci@@
teles@@
Z
ợt
ưởng
envi@@
narra@@
opini@@
urs
ousness
contin@@
entially
Nig@@
challeng@@
eff@@
medic@@
doc@@
ể@@
justi@@
mas
econ@@
cess@@
fically
gentle@@
sionate
Cop@@
signific@@
osaur@@
ử@@
ưỡi
ef@@
amine
strugg@@
tice
pants
finan@@
eness
anxi@@
beg@@
volu@@
year@@
iệm
ẻ@@
Goog@@
roun@@
easi@@
qua@@
deter@@
ffer
ades
CO@@
obs
sual
achiev@@
aper
inal
epide@@
illions
ç@@
sand@@
struction
Gab@@
pedia
Phi@@
Eli@@
ĩa
ệch
ằm
ịp
remark@@
aga@@
ames
tane@@
teach@@
ress
orig@@
Goo@@
atur@@
dden
ingredi@@
urity
timately
politici@@
missions
tish
ouldn
Ă@@
ứ@@
ặm
ỳ@@
ẳn
deb@@
mol@@
tage
Gir@@
Isla@@
circum@@
arm@@
edu@@
communic@@
j
xide
è@@
ổ@@
ồ@@
õi
wri@@
Angel@@
seri@@
drew
eal@@
rought
bir@@
deep@@
ji@@
materi@@
pment
technologi@@
toc@@
Mand@@
ony@@
uyệt
họ@@
perspec@@
ignor@@
fini@@
scienti@@
ein
eel
appropri@@
zz
U.@@
Broo@@
liar
gether
apart@@
bel
four@@
TE@@
Gh@@
lyn
BM
õ@@
ý@@
sional
cording
mee@@
libr@@
cac@@
enor@@
cogni@@
Every@@
vide@@
Yor@@
insul@@
App@@
grow@@
bab@@
ẵn
ếu
ụp
ớp
iểm
ướ@@
ann@@
fran@@
intui@@
)
antic
dise@@
hus@@
stant
Alex@@
traffi@@
descri@@
riage
exist@@
sibly
21@@
uys
dop@@
ruption
mista@@
resul@@
ỗng
nă@@
ụn
Ô
world@@
pregn@@
adverti@@
tality
perf@@
contra@@
anies
Chin@@
itely
Paki@@
eci@@
dn
cals
environ@@
abstr@@
adul@@
olutionary
brilli@@
samp@@
Fr@@
ô-la
ợp
kly
uro@@
fore
concen@@
convin@@
explor@@
Blu@@
ddle
syst@@
Bec@@
there@@
metho@@
khuy@@
ựu
ĩnh
ọ@@
tiz@@
explan@@
happi@@
wheel@@
licen@@
Braz@@
AD@@
spor@@
wom@@
enever
fos@@
stati@@
gin@@
hypo@@
magaz@@
suring
wonder@@
trav@@
wear@@
Ye@@
#
Vic@@
clou@@
Inst@@
ẩ@@
ẹ
ễ@@
ẵ@@
Ứ@@
gar
astoni@@
sensi@@
success@@
vid
asp@@
child@@
stitute
Rw@@
meani@@
socie@@
other@@
lear
plea@@
tribu@@
adu@@
hope@@
ava@@
prev@@
ơ-@@
ĩ@@
Wester@@
esome
spirit@@
conflic@@
nex@@
licated
through@@
kilome@@
meaning@@
mark@@
Cen@@
cate@@
esn
metaph@@
K.
hospit@@
acity
@
relev@@
effici@@
Chic@@
ales
mem@@
aur@@
fundamen@@
ander
Af@@
vard
quy@@
ướp
three@@
issu@@
hind
affor@@
Trans@@
popu@@
titles
intellec@@
rus
sibilities
ghting
metap@@
consum@@
Fl@@
resour@@
eda
ashi@@
Ama@@
buy@@
Ờ
ém
iệp
uyện
techni@@
mbers
comfor@@
notic@@
Mus@@
volun@@
exi@@
Sub@@
dit
atus
embar@@
busin@@
sically
fif@@
surpri@@
sandwi@@
ED@@
maj@@
antage
them@@
ID@@
tuy@@
ầng
tori@@
Mic@@
ridi@@
gest
enty
birth@@
dable
know@@
nega@@
som@@
hic@@
hundre@@
instru@@
tween
norm@@
apos@@
impli@@
icity
villa@@
performan@@
colle@@
fascin@@
orrow
amo@@
sat@@
Europe@@
grate@@
Chil@@
MR@@
Ẩ@@
vity
kes@@
iPh@@
IT
ested
Cong@@
vul@@
cee@@
guar@@
poo@@
gori@@
oxy@@
thous@@
appli@@
Scho@@
sels
tempor@@
mage
zza
ices
aniel
Ừ@@
iế@@
ụm
íu
atmos@@
ö@@
chic@@
chang@@
Wom@@
litary
grou@@
avail@@
wis@@
Ea@@
ither
Americ@@
awar@@
coff@@
vil@@
exac@@
insur@@
practi@@
Hen@@
Abra@@
dou@@
iể@@
Ô@@
agre@@
tremend@@
valent
ellow
patter@@
Arab@@
tron@@
hic
tis@@
effi@@
ü@@
DV@@
inst
staf@@
liệ@@
ủ@@
ằ@@
experim@@
rhy@@
tainment
poe@@
Imag@@
earth@@
Steph@@
ext
Bron@@
beha@@
esterday
vered
AID@@
ander@@
dụ@@
ã@@
Â@@
Ấ@@
Ổ@@
leng@@
anks
sui@@
vices
conti@@
ler@@
crete
lymp@@
necess@@
osoph@@
techno@@
reco@@
alth
(
nical
prou@@
desig@@
singly
unexp@@
Gul@@
olds
infrastruc@@
cational
hou@@
Japan@@
ôla
erci@@
agement
orch@@
duce
him@@
aught
Nel@@
enom@@
gni@@
utes
oran
Rich@@
Ale@@
tabo@@
stances
Ara@@
ca-@@
ặ@@
ểu
chuy@@
Ơ@@
ím
sophis@@
sages
fami@@
ggs
danger@@
rand@@
Ir@@
tence
bicy@@
situ@@
Oba@@
Gand@@
Kev@@
proce@@
oce@@
thes
Cali@@
travel@@
_
ẫ@@
anistan
À@@
¼
ặp
​
lớ@@
Hig@@
illion
liqu@@
Foun@@
resident
effor@@
vulner@@
Tim@@
echno@@
jects
fas@@
vings
versity
antibio@@
conversa@@
feed@@
beli@@
eap
alleng@@
itchen
oppos@@
ø@@
opportu@@
Tali@@
ä@@
quake
q
ỵ@@
ò@@
ưỡng
ù@@
õng
ữu
Whi@@
Tex@@
scul@@
use@@
Christ@@
olution
langu@@
Glob@@
Isra@@
acter@@
fiel@@
Fren@@
Icel@@
rem@@
tocin
ership
outh
icy@@
kinson
wai@@
priv@@
zen
esia
̣
ươn
cience
อ@@
chos@@
gge@@
angers
your@@
rapid@@
hua
Sing@@
quick@@
centu@@
imer
â
rase
tot@@
Twit@@
colate
Thom@@
PS
lywood
*
Aristot@@
exci@@
Micha@@
sco
Ê
Ộ@@
ũi
đị@@
tiế@@
ượu
raid
symptom@@
percen@@
wart
neur@@
Clin@@
gaz@@
televi@@
auty
natur@@
isting
pid
belie@@
treprene@@
fortun@@
chrom@@
monstr@@
goti@@
phos@@
tury
ỹ@@
ỷ@@
ậc
Ố@@
ầ
ỗ@@
tware
prote@@
Tanz@@
sustain@@
trum
matically
N.
soph@@
const@@
vere
ï@@
unex@@
Face@@
certain@@
Ug@@
year-@@
ỗn
Ú@@
ẳ@@
ưở@@
Ạ@@
Ủ@@
Ì
nerv@@
perfec@@
Arthu@@
wher@@
camer@@
ric
ct
xies
thcare
OE@@
alley
religi@@
Detro@@
erra
noon
pass@@
Califor@@
eah
behavi@@
r.
greenh@@
dividu@@
agen
£
Lon@@
huy@@
\
tiệ@@
mạ@@
Ế@@
©
Ậ@@
¾
Ắ@@
Đ
rom
hous@@
rastruc@@
damen@@
ร
่
neath
agen@@
every@@
Micros@@
tex
sibi@@
Lew@@
Indon@@
principl@@
mend@@
lead@@
uary
absolu@@
lease
hung@@
É@@
plom@@
slow@@
Montan@@
NA
movi@@
Shakespe@@
obvi@@
ssic
seum
́
gry
ë
robot@@
Ù@@

`
iệc
½
ệnh
ă
iệng
Ơ
Ê@@
ẫ
ñ@@
niture
ย
sacri@@
fficul@@
dience
cently
celer@@
victi@@
embed@@


very@@
Brook@@
ngst
nities
tropy
ā@@
Bei@@
schi@@
stud@@
pover@@
achi@@
Ồ@@
Ã@@
đ
hattan
}
Washi@@
Ự
Ệ@@
ừu
̀
ấ
~
hã@@
boundar@@
amoun@@
cipl@@
happen@@
Amer@@
Tasmani@@
olum@@
atest
YouTu@@
ecos@@
relation@@
frame@@
incredi@@
oft
acces@@
€
truc@@
Singap@@
piec@@
Arg@@
rones
spiring
gorith@@
olved
frien@@
Zeal@@
anderth@@
degre@@
Ť
Syl@@
ø
Franci@@
Č@@
Ờ@@
ẳm

ậ
Flori@@
ơ-ron
Ì@@
chiế@@
Ị@@
Ử
Ầ@@
Ó
Ể@@
́
Ố
Coca-@@
²
`@@
{
ć
Ọ@@
compon@@
ย@@
ceed
proper@@
whel@@
mately
ē
examp@@
stac@@
friger@@
vehic@@
ë@@
redi@@
ggest
zoph@@
intellig@@
Einst@@
ciple
送@@
你@@
葱
stinc@@
ticated
Å@@
¡
Muham@@
Â
heimer
Ầ
ẵ
Ụ
Ữ
ẽn
Ỵ
Ĩ
Í
Ẻ@@
®
ẳ
Ể
Ớ@@
dạ@@
zler
lã@@
Ẻ
ｃ
Ứ
Ổ
hatt@@
Ỉ@@
Ỗ@@
Ở@@
